const unsigned char model[] = {
  0x1c, 0x00, 0x00, 0x00, 0x54, 0x46, 0x4c, 0x33, 0x14, 0x00, 0x20, 0x00,
  0x1c, 0x00, 0x18, 0x00, 0x14, 0x00, 0x10, 0x00, 0x0c, 0x00, 0x00, 0x00,
  0x08, 0x00, 0x04, 0x00, 0x14, 0x00, 0x00, 0x00, 0x1c, 0x00, 0x00, 0x00,
  0x90, 0x00, 0x00, 0x00, 0xe8, 0x00, 0x00, 0x00, 0x00, 0x27, 0x00, 0x00,
  0x10, 0x27, 0x00, 0x00, 0x08, 0x2c, 0x00, 0x00, 0x03, 0x00, 0x00, 0x00,
  0x01, 0x00, 0x00, 0x00, 0x10, 0x00, 0x00, 0x00, 0x00, 0x00, 0x0a, 0x00,
  0x10, 0x00, 0x0c, 0x00, 0x08, 0x00, 0x04, 0x00, 0x0a, 0x00, 0x00, 0x00,
  0x0c, 0x00, 0x00, 0x00, 0x1c, 0x00, 0x00, 0x00, 0x38, 0x00, 0x00, 0x00,
  0x0f, 0x00, 0x00, 0x00, 0x73, 0x65, 0x72, 0x76, 0x69, 0x6e, 0x67, 0x5f,
  0x64, 0x65, 0x66, 0x61, 0x75, 0x6c, 0x74, 0x00, 0x01, 0x00, 0x00, 0x00,
  0x04, 0x00, 0x00, 0x00, 0x98, 0xff, 0xff, 0xff, 0x09, 0x00, 0x00, 0x00,
  0x04, 0x00, 0x00, 0x00, 0x07, 0x00, 0x00, 0x00, 0x64, 0x65, 0x6e, 0x73,
  0x65, 0x5f, 0x32, 0x00, 0x01, 0x00, 0x00, 0x00, 0x04, 0x00, 0x00, 0x00,
  0x0a, 0xda, 0xff, 0xff, 0x04, 0x00, 0x00, 0x00, 0x0b, 0x00, 0x00, 0x00,
  0x64, 0x65, 0x6e, 0x73, 0x65, 0x5f, 0x69, 0x6e, 0x70, 0x75, 0x74, 0x00,
  0x02, 0x00, 0x00, 0x00, 0x34, 0x00, 0x00, 0x00, 0x04, 0x00, 0x00, 0x00,
  0xdc, 0xff, 0xff, 0xff, 0x0c, 0x00, 0x00, 0x00, 0x04, 0x00, 0x00, 0x00,
  0x13, 0x00, 0x00, 0x00, 0x43, 0x4f, 0x4e, 0x56, 0x45, 0x52, 0x53, 0x49,
  0x4f, 0x4e, 0x5f, 0x4d, 0x45, 0x54, 0x41, 0x44, 0x41, 0x54, 0x41, 0x00,
  0x08, 0x00, 0x0c, 0x00, 0x08, 0x00, 0x04, 0x00, 0x08, 0x00, 0x00, 0x00,
  0x0b, 0x00, 0x00, 0x00, 0x04, 0x00, 0x00, 0x00, 0x13, 0x00, 0x00, 0x00,
  0x6d, 0x69, 0x6e, 0x5f, 0x72, 0x75, 0x6e, 0x74, 0x69, 0x6d, 0x65, 0x5f,
  0x76, 0x65, 0x72, 0x73, 0x69, 0x6f, 0x6e, 0x00, 0x0d, 0x00, 0x00, 0x00,
  0x14, 0x26, 0x00, 0x00, 0x0c, 0x26, 0x00, 0x00, 0x7c, 0x25, 0x00, 0x00,
  0x60, 0x25, 0x00, 0x00, 0x50, 0x24, 0x00, 0x00, 0x40, 0x21, 0x00, 0x00,
  0x30, 0x01, 0x00, 0x00, 0xa0, 0x00, 0x00, 0x00, 0x98, 0x00, 0x00, 0x00,
  0x90, 0x00, 0x00, 0x00, 0x88, 0x00, 0x00, 0x00, 0x68, 0x00, 0x00, 0x00,
  0x04, 0x00, 0x00, 0x00, 0xb6, 0xda, 0xff, 0xff, 0x04, 0x00, 0x00, 0x00,
  0x54, 0x00, 0x00, 0x00, 0x0c, 0x00, 0x00, 0x00, 0x08, 0x00, 0x0e, 0x00,
  0x08, 0x00, 0x04, 0x00, 0x08, 0x00, 0x00, 0x00, 0x10, 0x00, 0x00, 0x00,
  0x24, 0x00, 0x00, 0x00, 0x00, 0x00, 0x06, 0x00, 0x08, 0x00, 0x04, 0x00,
  0x06, 0x00, 0x00, 0x00, 0x04, 0x00, 0x00, 0x00, 0x00, 0x00, 0x00, 0x00,
  0x00, 0x00, 0x0a, 0x00, 0x10, 0x00, 0x0c, 0x00, 0x08, 0x00, 0x04, 0x00,
  0x0a, 0x00, 0x00, 0x00, 0x02, 0x00, 0x00, 0x00, 0x02, 0x00, 0x00, 0x00,
  0x04, 0x00, 0x00, 0x00, 0x06, 0x00, 0x00, 0x00, 0x32, 0x2e, 0x31, 0x35,
  0x2e, 0x30, 0x00, 0x00, 0x16, 0xdb, 0xff, 0xff, 0x04, 0x00, 0x00, 0x00,
  0x10, 0x00, 0x00, 0x00, 0x31, 0x2e, 0x35, 0x2e, 0x30, 0x00, 0x00, 0x00,
  0x00, 0x00, 0x00, 0x00, 0x00, 0x00, 0x00, 0x00, 0xc0, 0xd5, 0xff, 0xff,
  0xc4, 0xd5, 0xff, 0xff, 0xc8, 0xd5, 0xff, 0xff, 0x3e, 0xdb, 0xff, 0xff,
  0x04, 0x00, 0x00, 0x00, 0x80, 0x00, 0x00, 0x00, 0x87, 0x88, 0x09, 0x3e,
  0x73, 0xa7, 0xe7, 0x3e, 0x5e, 0x00, 0x98, 0x3e, 0x4c, 0x8c, 0xe9, 0x3e,
  0xba, 0x63, 0x5f, 0xbe, 0x5e, 0x9d, 0x25, 0xbd, 0x9c, 0xae, 0x29, 0x3e,
  0x97, 0xef, 0x93, 0xbd, 0x52, 0x9b, 0xff, 0xbd, 0x74, 0xbe, 0x85, 0x3e,
  0x49, 0xba, 0xd3, 0xbe, 0x82, 0x9f, 0x95, 0x3e, 0x17, 0x2d, 0x05, 0x3f,
  0x12, 0x9c, 0xbc, 0x3e, 0x82, 0x65, 0x72, 0xbe, 0x56, 0xc2, 0xf8, 0xbd,
  0x10, 0x1d, 0xa8, 0xbd, 0xa9, 0x17, 0xe4, 0x3e, 0xc5, 0x91, 0xa3, 0xbe,
  0x39, 0x89, 0xcd, 0xbd, 0x9c, 0xa1, 0xa2, 0xbe, 0x5c, 0xb7, 0x5f, 0xbe,
  0x2b, 0xec, 0x01, 0x3f, 0x46, 0x40, 0x94, 0xbe, 0x0c, 0x1f, 0x38, 0x3e,
  0x6a, 0xe5, 0x3d, 0xbe, 0x1b, 0x31, 0x06, 0x3f, 0x36, 0xcf, 0xa8, 0xbe,
  0xa1, 0xf5, 0x5d, 0x3e, 0x81, 0x95, 0xaf, 0xbc, 0x38, 0x15, 0x10, 0xbe,
  0x99, 0x76, 0xd2, 0x3e, 0xca, 0xdb, 0xff, 0xff, 0x04, 0x00, 0x00, 0x00,
  0x00, 0x20, 0x00, 0x00, 0x53, 0xbb, 0x58, 0x3e, 0x20, 0xb7, 0x51, 0x3d,
  0x8c, 0xf3, 0x78, 0xbe, 0x79, 0xe9, 0x9c, 0x3e, 0x1f, 0x1e, 0xd5, 0x3c,
  0xf9, 0x85, 0x9d, 0x3d, 0xc0, 0xfd, 0x37, 0x3c, 0x99, 0xc6, 0xbf, 0x3e,
  0x68, 0xc9, 0xc4, 0x3d, 0x65, 0x24, 0x31, 0x3e, 0x14, 0xaf, 0x9f, 0xbd,
  0x00, 0xe4, 0x94, 0x3a, 0x48, 0x2f, 0x90, 0xbd, 0x68, 0x97, 0x0a, 0x3e,
  0xf2, 0x70, 0xe3, 0x3d, 0x50, 0xea, 0xa4, 0x3d, 0x12, 0x73, 0xc6, 0x3e,
  0xf9, 0x55, 0x95, 0x3e, 0xe0, 0xdb, 0x77, 0x3e, 0xc0, 0x51, 0x88, 0x3d,
  0xe1, 0x19, 0xc3, 0x3e, 0x3c, 0x13, 0x9a, 0x3e, 0x99, 0x94, 0xb1, 0xbc,
  0xf7, 0x24, 0x11, 0xbd, 0x30, 0xb2, 0xc1, 0x3e, 0x42, 0x69, 0xbd, 0x3e,
  0x2e, 0x3d, 0x80, 0x3e, 0xd9, 0xdf, 0x4c, 0x3e, 0x08, 0xe0, 0x5d, 0xbe,
  0x98, 0x87, 0x88, 0x3a, 0x44, 0x00, 0x52, 0x3e, 0x90, 0x69, 0x5d, 0xbd,
  0xfc, 0x38, 0x7f, 0x3e, 0x55, 0x46, 0x80, 0x3c, 0xc3, 0x94, 0x81, 0x3e,
  0x8a, 0x3c, 0xa4, 0x3e, 0x20, 0x36, 0x05, 0xbe, 0x8c, 0xc2, 0x33, 0x3e,
  0xa2, 0xb6, 0x52, 0x3e, 0x90, 0x8a, 0xd6, 0xbd, 0x60, 0x19, 0xce, 0xbd,
  0x43, 0xc6, 0x0f, 0x3d, 0x20, 0x01, 0x88, 0xbd, 0xd0, 0x88, 0xf6, 0x3d,
  0xe0, 0xfc, 0x0f, 0x3e, 0x64, 0xb7, 0x32, 0x3d, 0xe5, 0xcc, 0x53, 0x3e,
  0x90, 0xfe, 0x26, 0x3d, 0xcc, 0x26, 0x28, 0xbe, 0xf0, 0x6c, 0x3e, 0x3e,
  0xf4, 0x19, 0x07, 0xbe, 0x02, 0x3c, 0x62, 0x3d, 0x80, 0x23, 0x10, 0x3e,
  0x1c, 0x11, 0x6b, 0x3e, 0x82, 0x20, 0xc9, 0x3e, 0xc8, 0x80, 0xbc, 0xbd,
  0xc0, 0xf8, 0xe2, 0x3c, 0x00, 0x33, 0x5c, 0xbd, 0x01, 0x9a, 0x8a, 0x3e,
  0xe8, 0x64, 0xb7, 0x3d, 0x44, 0x1b, 0x26, 0xbe, 0x59, 0x05, 0x7e, 0x3e,
  0x32, 0xb6, 0x86, 0x3e, 0xcc, 0x94, 0x92, 0xbc, 0xf9, 0x11, 0xee, 0xbd,
  0x82, 0x16, 0x86, 0x3e, 0x1c, 0xa3, 0x33, 0x3e, 0x1a, 0x06, 0x7d, 0x3e,
  0xcf, 0x13, 0x94, 0xbc, 0xfe, 0x9f, 0x33, 0x3d, 0x90, 0x6c, 0x81, 0xbd,
  0x4a, 0x05, 0xc4, 0x3e, 0x0c, 0xb2, 0x68, 0x3e, 0xc2, 0xc1, 0xdb, 0x3c,
  0x12, 0xc4, 0x08, 0xbd, 0xe0, 0x87, 0xb5, 0x3c, 0xab, 0xb4, 0x4e, 0xbb,
  0xc0, 0x13, 0x51, 0x3e, 0xd5, 0x30, 0x38, 0x3e, 0x73, 0xbc, 0x9e, 0x3e,
  0x02, 0xaf, 0xa6, 0x3e, 0xa0, 0xad, 0x9d, 0x3e, 0xc0, 0x69, 0xa4, 0xbd,
  0x37, 0xc4, 0x01, 0xbe, 0x43, 0x53, 0x80, 0x3e, 0x0c, 0x70, 0xbe, 0xbd,
  0x19, 0x23, 0x51, 0x3d, 0xfc, 0xdb, 0x3b, 0xbd, 0x3e, 0x94, 0xa2, 0x3e,
  0x87, 0x3f, 0x89, 0x3d, 0xf1, 0x81, 0x1a, 0xbe, 0x63, 0x07, 0x1d, 0x3e,
  0xfc, 0xef, 0x20, 0xbe, 0x52, 0x0a, 0xf9, 0xbd, 0x38, 0x0d, 0xf1, 0x3d,
  0xf4, 0x22, 0x13, 0x3e, 0x7f, 0x1a, 0xa7, 0x3e, 0xc5, 0xd7, 0x15, 0x3e,
  0x13, 0xa6, 0x5c, 0x3e, 0xb0, 0xb8, 0x9f, 0x3e, 0xd4, 0x04, 0x67, 0x3e,
  0xb8, 0x52, 0xf8, 0x3d, 0x69, 0x09, 0x42, 0xbc, 0x80, 0x39, 0x5d, 0x3c,
  0x58, 0x61, 0x8c, 0xbd, 0x95, 0x96, 0x66, 0x3e, 0xf4, 0x99, 0x32, 0x3e,
  0x80, 0x36, 0x2a, 0xbd, 0x21, 0xc0, 0xe6, 0xbc, 0x5d, 0x8d, 0x92, 0xbc,
  0xbe, 0x97, 0xc9, 0x3d, 0x7c, 0xef, 0x5d, 0xbe, 0xa0, 0x79, 0x94, 0x3d,
  0xcc, 0xf9, 0x54, 0x3e, 0xcc, 0x9e, 0x19, 0x3e, 0x37, 0xbe, 0x8e, 0x3e,
  0x70, 0x4c, 0xdb, 0xbd, 0x43, 0x4f, 0x4d, 0x3d, 0x30, 0xae, 0xbe, 0x3d,
  0x70, 0xd8, 0x30, 0x3d, 0xf0, 0x2b, 0x4c, 0xbd, 0x98, 0x23, 0xa2, 0x3d,
  0xe4, 0x4a, 0x4d, 0x3e, 0x54, 0x1d, 0x73, 0x3e, 0xa8, 0xcf, 0xe0, 0x3d,
  0xbd, 0x06, 0xc1, 0x3d, 0x68, 0xdb, 0x8f, 0x3e, 0xc0, 0x25, 0x29, 0x3e,
  0x20, 0x78, 0xa9, 0xbc, 0xc0, 0x4a, 0x67, 0x3d, 0xe0, 0xc7, 0x07, 0xbd,
  0x9c, 0x3f, 0x77, 0xbe, 0x08, 0x0d, 0x24, 0x3e, 0xc8, 0x97, 0x40, 0xbe,
  0x50, 0xdc, 0xe7, 0x3d, 0x5c, 0x92, 0x05, 0x3e, 0x04, 0x66, 0x22, 0xbe,
  0xe8, 0x42, 0xae, 0x3d, 0xe0, 0xdc, 0xe8, 0xbd, 0x78, 0x20, 0x99, 0xbd,
  0x40, 0xb6, 0xe5, 0xbd, 0xd4, 0x16, 0x26, 0x3e, 0xd0, 0xed, 0x60, 0xbd,
  0xf0, 0xe4, 0x9e, 0x3d, 0x8c, 0x5c, 0x35, 0x3e, 0x84, 0xd5, 0x0b, 0xbe,
  0x30, 0x7c, 0xac, 0x3d, 0x20, 0x2f, 0x63, 0x3d, 0x00, 0x02, 0x6b, 0x3d,
  0xb8, 0x48, 0x37, 0xbe, 0x00, 0x38, 0x39, 0x3e, 0x40, 0xf1, 0x62, 0xbd,
  0xcc, 0x76, 0x5c, 0xbe, 0xe0, 0xe7, 0x03, 0x3e, 0x20, 0x88, 0x4c, 0x3d,
  0x00, 0x74, 0x71, 0xbb, 0x28, 0x4a, 0xce, 0x3d, 0x08, 0xb2, 0x89, 0x3d,
  0x30, 0xa9, 0x67, 0x3e, 0x7c, 0xb0, 0x3e, 0xbe, 0xf0, 0xd9, 0x35, 0x3d,
  0x94, 0xdc, 0x0e, 0xbe, 0x74, 0xc5, 0x78, 0x3e, 0x4c, 0x77, 0x6e, 0xbe,
  0xec, 0x52, 0x3b, 0x3e, 0x18, 0x4c, 0x20, 0x3e, 0x58, 0xbd, 0xa9, 0xbd,
  0x7c, 0x2b, 0x14, 0xbe, 0xa8, 0x0c, 0xe0, 0xbd, 0xd0, 0xfd, 0x0a, 0xbe,
  0xfc, 0x1c, 0x0b, 0x3e, 0xbc, 0xbb, 0x7a, 0x3e, 0x60, 0xd4, 0xdb, 0xbc,
  0x88, 0x91, 0x41, 0xbe, 0x60, 0x03, 0x29, 0xbd, 0x40, 0xed, 0x74, 0x3d,
  0xe8, 0x1e, 0x54, 0x3e, 0x00, 0x42, 0xf6, 0xbb, 0x70, 0x3d, 0xda, 0x3d,
  0x40, 0xf0, 0x34, 0xbd, 0x9c, 0xc1, 0x54, 0xbe, 0x10, 0xd5, 0x71, 0x3e,
  0x08, 0x58, 0x16, 0xbe, 0xb8, 0x8e, 0x7d, 0x3e, 0x14, 0x95, 0x32, 0x3e,
  0x08, 0xd0, 0x39, 0xbe, 0xf0, 0x25, 0x86, 0x3d, 0x80, 0x34, 0xba, 0x3b,
  0x50, 0x64, 0xfe, 0xbd, 0xfc, 0xe0, 0x74, 0xbe, 0x60, 0xb6, 0x04, 0x3d,
  0x90, 0x73, 0x01, 0xbe, 0x08, 0xb9, 0xd5, 0xbd, 0x2f, 0x9c, 0xae, 0x3c,
  0x28, 0xbf, 0x5d, 0xbe, 0x76, 0xb5, 0xc4, 0x3d, 0x74, 0xf9, 0x97, 0x3e,
  0xfd, 0x17, 0xeb, 0x3b, 0xc4, 0xb3, 0x07, 0xbe, 0xbb, 0x7f, 0x3e, 0x3e,
  0x38, 0xa1, 0x0b, 0x3e, 0x72, 0xe3, 0xdd, 0x3d, 0xdb, 0x4e, 0x8b, 0x3e,
  0x5c, 0x51, 0x21, 0xbe, 0x57, 0x89, 0x8f, 0x3e, 0x94, 0x25, 0x49, 0xbe,
  0x83, 0x1b, 0x25, 0x3e, 0xe4, 0x80, 0x9a, 0x3d, 0x54, 0x9f, 0xa1, 0x3e,
  0x19, 0x5a, 0xdb, 0x3d, 0x40, 0x56, 0x5e, 0x3c, 0xc7, 0xc9, 0x9b, 0x3e,
  0x19, 0x18, 0x92, 0x3e, 0x10, 0x2b, 0x2e, 0xbd, 0x7a, 0xed, 0xf2, 0x3d,
  0xde, 0xf7, 0x7f, 0x3d, 0xd7, 0xe2, 0x4e, 0x3e, 0x31, 0x38, 0x75, 0xbd,
  0x6d, 0x8f, 0x43, 0x3c, 0x1b, 0xfb, 0x80, 0x3e, 0x30, 0x87, 0x00, 0xbe,
  0x86, 0x92, 0x8f, 0x3d, 0xd4, 0x9a, 0x35, 0xbe, 0xe8, 0xd5, 0xe2, 0xbd,
  0x70, 0x6f, 0x9e, 0x3d, 0xec, 0x5c, 0x2b, 0xbe, 0xad, 0xec, 0x9e, 0x3e,
  0x62, 0xb4, 0x74, 0x3d, 0xa0, 0x57, 0x2d, 0xbe, 0xf0, 0xd6, 0x36, 0x3e,
  0xf1, 0xf8, 0x8f, 0x3e, 0x40, 0xdf, 0xd7, 0x3c, 0xcc, 0x9e, 0x5e, 0xbe,
  0xf0, 0x09, 0x70, 0xbe, 0x84, 0x1c, 0x1b, 0x3e, 0x3c, 0xdd, 0x23, 0x3e,
  0x40, 0xd7, 0x37, 0x3e, 0x49, 0x03, 0xca, 0x3e, 0xa3, 0xf8, 0x72, 0xbd,
  0x90, 0x0c, 0xab, 0x3d, 0x60, 0x80, 0x97, 0xbc, 0x00, 0x97, 0x86, 0x3d,
  0x98, 0x55, 0x67, 0x3e, 0x7c, 0x74, 0x8a, 0xbd, 0xbc, 0x77, 0x1a, 0xbe,
  0xb1, 0xf6, 0xb3, 0x3e, 0x84, 0xd5, 0x21, 0xbd, 0x5c, 0x0f, 0x30, 0x3e,
  0x40, 0x1e, 0x49, 0xbe, 0x00, 0x40, 0xda, 0x3a, 0x61, 0x32, 0x9d, 0x3e,
  0x48, 0xad, 0xc9, 0x3d, 0xa8, 0xbf, 0xac, 0x3d, 0xa6, 0x6e, 0x79, 0x3e,
  0x1b, 0x95, 0x15, 0x3e, 0x24, 0xa3, 0x93, 0x3e, 0xa1, 0x2a, 0xd3, 0x3b,
  0x23, 0xd3, 0xe1, 0xbc, 0xe0, 0xa1, 0x0d, 0xbe, 0xdb, 0xec, 0x66, 0xbe,
  0x9f, 0x27, 0x44, 0xbe, 0x90, 0x6e, 0x8f, 0xbe, 0x70, 0x1a, 0x2f, 0x3e,
  0x93, 0x4c, 0x10, 0xbe, 0xc0, 0x3a, 0x6c, 0x3c, 0x94, 0xbf, 0x65, 0xbe,
  0x5d, 0x7a, 0xdb, 0x3c, 0x60, 0x2d, 0xec, 0xbc, 0x60, 0x5f, 0x03, 0x3e,
  0x80, 0xbd, 0xcb, 0xbd, 0x42, 0xcb, 0x10, 0x3e, 0xfe, 0xe1, 0x52, 0x3e,
  0xd1, 0xd7, 0xbc, 0x3d, 0x91, 0x93, 0xf1, 0x3d, 0x80, 0xa5, 0x9a, 0xbc,
  0xb7, 0x09, 0x7b, 0xbd, 0x90, 0x5c, 0xb4, 0x3d, 0xdd, 0xcf, 0x92, 0xbc,
  0x74, 0x96, 0x54, 0x3e, 0x06, 0x51, 0x4d, 0xbe, 0x36, 0x67, 0x19, 0xbe,
  0xe7, 0x13, 0x9c, 0x3d, 0x37, 0x09, 0x29, 0x3d, 0xbc, 0x01, 0x49, 0xbd,
  0xd0, 0xeb, 0x1a, 0xbe, 0xd9, 0xb5, 0xb4, 0x3d, 0xc0, 0x0b, 0x12, 0xbe,
  0x9c, 0x18, 0x6a, 0x3e, 0xb2, 0x60, 0x23, 0x3d, 0x76, 0x3a, 0x7a, 0xbe,
  0xbe, 0x72, 0x1d, 0xbe, 0x34, 0xf2, 0x8d, 0xbe, 0xe8, 0x00, 0x77, 0xbe,
  0xa8, 0xde, 0x8a, 0x3d, 0xa0, 0x1c, 0x00, 0xbd, 0x50, 0x3f, 0xc5, 0x3d,
  0xc4, 0x7a, 0x6d, 0xbe, 0xc4, 0x6f, 0x59, 0x3e, 0x90, 0x2a, 0x1a, 0xbd,
  0x7c, 0xfd, 0x3d, 0x3e, 0x30, 0xea, 0x0d, 0x3d, 0x1b, 0xa2, 0x24, 0x3e,
  0xdf, 0xa8, 0x43, 0x3e, 0x74, 0x73, 0x72, 0xbe, 0x88, 0xcc, 0x03, 0xbe,
  0x78, 0x06, 0x13, 0x3e, 0x78, 0xbd, 0x26, 0xbe, 0xc1, 0x72, 0x2b, 0x3e,
  0xa4, 0xdf, 0x6e, 0xbe, 0x75, 0x99, 0x54, 0xbe, 0x4f, 0x0e, 0x22, 0xbd,
  0x8c, 0x18, 0x47, 0xbe, 0x00, 0x2a, 0xa1, 0xba, 0x08, 0x7d, 0x99, 0xbd,
  0x17, 0x6e, 0x4e, 0x3e, 0xd0, 0x72, 0x91, 0xbd, 0x04, 0xbd, 0x48, 0xbe,
  0x51, 0xb4, 0x4a, 0x3d, 0x7c, 0xf5, 0x64, 0xbe, 0xb3, 0xb4, 0x73, 0xbc,
  0x50, 0x7a, 0xdf, 0x3d, 0x8f, 0x47, 0x66, 0xbe, 0x00, 0xf5, 0xcf, 0x3d,
  0xa0, 0xce, 0x5d, 0x3e, 0x47, 0x19, 0x88, 0xbe, 0x35, 0x0e, 0x33, 0xbe,
  0x34, 0x2d, 0x7a, 0x3e, 0xc3, 0x29, 0x85, 0xbd, 0xf4, 0x91, 0x59, 0x3e,
  0x1e, 0x1c, 0x41, 0x3e, 0x02, 0x4b, 0x0f, 0xbe, 0x6c, 0xf3, 0x40, 0x3e,
  0xec, 0x40, 0xdf, 0xbd, 0x20, 0x9b, 0xec, 0x3c, 0xf2, 0xb3, 0x97, 0x3d,
  0xf5, 0x5f, 0x00, 0x3e, 0x0e, 0xbe, 0x9f, 0xbc, 0xed, 0x30, 0x14, 0xbe,
  0x78, 0x11, 0x78, 0x3e, 0xd4, 0x89, 0xba, 0xbd, 0xa9, 0xb9, 0x01, 0xbe,
  0x6e, 0x61, 0x19, 0xbe, 0xf4, 0x27, 0x1d, 0xbd, 0x90, 0x8a, 0xe8, 0x3d,
  0x75, 0x9e, 0x20, 0xbe, 0xee, 0x91, 0x86, 0xbc, 0x17, 0xed, 0xf0, 0x3d,
  0xea, 0x60, 0x12, 0x3e, 0xbc, 0xe0, 0x21, 0x3e, 0x6b, 0xbe, 0x5b, 0xbe,
  0x40, 0xff, 0x1b, 0xbd, 0x80, 0x2c, 0x14, 0xbe, 0x41, 0x92, 0x86, 0xbd,
  0x18, 0xe2, 0x27, 0xbe, 0xea, 0x8d, 0x26, 0x3e, 0xee, 0x5a, 0x18, 0x3e,
  0x84, 0xee, 0x47, 0x3e, 0x70, 0xa2, 0xce, 0x3d, 0x88, 0x90, 0x57, 0x3e,
  0x90, 0xc4, 0x42, 0xbd, 0x80, 0xea, 0xbd, 0x3b, 0x51, 0xab, 0x6a, 0xbe,
  0x14, 0x36, 0x7c, 0x3e, 0x70, 0xcf, 0x8f, 0xbd, 0x98, 0x5e, 0x83, 0xbd,
  0xee, 0xf6, 0x27, 0x3e, 0x46, 0xf3, 0x12, 0xbe, 0x20, 0x9a, 0x1d, 0xbd,
  0xd0, 0xc9, 0xcd, 0x3d, 0x10, 0xf6, 0x5b, 0xbe, 0xe0, 0x8b, 0xdf, 0x3d,
  0xc8, 0xbb, 0x7b, 0xbd, 0x00, 0xc9, 0x6d, 0x3c, 0x60, 0x23, 0x47, 0x3e,
  0x02, 0x87, 0x23, 0xbe, 0xfc, 0x40, 0x66, 0xbe, 0x64, 0x91, 0x79, 0x3e,
  0x10, 0xa2, 0x3d, 0x3e, 0xf5, 0x8c, 0x33, 0x3d, 0xa8, 0x52, 0x11, 0xbe,
  0x28, 0x69, 0xaa, 0x3d, 0x7a, 0x28, 0xf8, 0xbd, 0xd7, 0x94, 0x06, 0x3e,
  0xae, 0xbc, 0x0f, 0xbe, 0xe0, 0x67, 0x51, 0xbe, 0x28, 0xd8, 0xae, 0x3d,
  0x68, 0x88, 0xd4, 0xbd, 0xd0, 0xd7, 0x9d, 0x3d, 0x50, 0x96, 0x18, 0x3e,
  0x10, 0xed, 0xc5, 0xbd, 0x68, 0x77, 0xfa, 0x3d, 0x54, 0xf3, 0x3e, 0x3e,
  0x80, 0xcc, 0xf1, 0xbc, 0x0c, 0x74, 0x15, 0x3e, 0x00, 0x91, 0xf7, 0xbd,
  0x44, 0xae, 0x0c, 0x3e, 0xc0, 0xf8, 0x6a, 0x3e, 0xac, 0x2b, 0x04, 0x3e,
  0x88, 0x77, 0x37, 0x3e, 0x84, 0x09, 0x79, 0xbe, 0xf0, 0x85, 0x05, 0xbd,
  0x90, 0xac, 0x06, 0xbe, 0x80, 0x3b, 0x21, 0xbe, 0x38, 0x28, 0x8c, 0x3d,
  0x28, 0x5a, 0x95, 0xbd, 0x00, 0xc0, 0x00, 0xb9, 0xb0, 0x22, 0x31, 0x3e,
  0xf0, 0xd7, 0x7d, 0xbd, 0xd0, 0x83, 0xbc, 0xbd, 0xc8, 0xcc, 0x36, 0x3e,
  0x50, 0x46, 0x25, 0x3e, 0xf0, 0xb3, 0xc4, 0xbd, 0x30, 0xa1, 0xf3, 0xbd,
  0x00, 0xc1, 0x5e, 0x3b, 0xa8, 0xa4, 0x73, 0x3e, 0xd4, 0xbc, 0x43, 0x3e,
  0xf0, 0x6d, 0x1d, 0x3d, 0x60, 0x1c, 0xd4, 0x3c, 0x58, 0xba, 0x5f, 0x3e,
  0xdc, 0x91, 0x35, 0xbe, 0xc8, 0xbd, 0xf4, 0x3d, 0x7c, 0x5a, 0x52, 0x3e,
  0x88, 0xdf, 0xca, 0xbd, 0xbc, 0x1a, 0x17, 0x3e, 0x68, 0x4f, 0x76, 0x3e,
  0x08, 0x46, 0x8e, 0xbd, 0x00, 0xc6, 0xe1, 0xbc, 0x80, 0x79, 0x7a, 0x3e,
  0x60, 0xd1, 0x11, 0x3d, 0xd4, 0x28, 0x50, 0xbe, 0x88, 0x9a, 0xb1, 0x3d,
  0x48, 0x33, 0x43, 0x3e, 0x08, 0x8a, 0x18, 0x3e, 0xf0, 0x89, 0xfd, 0x3d,
  0x14, 0xa8, 0x7a, 0xbe, 0xa0, 0xad, 0xd9, 0xbc, 0xc0, 0x5a, 0x5f, 0x3e,
  0xa8, 0x15, 0x97, 0xbd, 0x94, 0xc1, 0x26, 0xbe, 0x30, 0x71, 0x25, 0x3d,
  0xd8, 0x62, 0x12, 0x3e, 0xa8, 0xad, 0x4c, 0x3e, 0x14, 0xc4, 0x4e, 0xbe,
  0x7c, 0x5b, 0x49, 0xbe, 0xd0, 0x27, 0xfe, 0x3d, 0x60, 0x98, 0x07, 0xbd,
  0x58, 0x75, 0x0e, 0x3e, 0x98, 0xf7, 0xcc, 0x3d, 0x2b, 0x4a, 0x04, 0x3e,
  0xf5, 0xd1, 0x39, 0xbe, 0x7c, 0x8d, 0x5f, 0x3e, 0x1a, 0xff, 0x7c, 0xbe,
  0x7d, 0xeb, 0x31, 0xbe, 0x80, 0xad, 0x68, 0xbe, 0x60, 0xc6, 0x37, 0xbe,
  0xc4, 0x67, 0x02, 0xbe, 0xd8, 0xfd, 0x02, 0xbe, 0x97, 0x0c, 0x31, 0x3e,
  0xde, 0x80, 0x80, 0xbe, 0x44, 0xdc, 0x19, 0xbe, 0x12, 0xd6, 0x59, 0x3c,
  0x00, 0xd4, 0xd2, 0xbc, 0xd4, 0xc4, 0x04, 0x3d, 0x1d, 0xb6, 0x71, 0x3e,
  0x85, 0x13, 0x53, 0xbe, 0x45, 0x90, 0x8d, 0x3c, 0xc0, 0xc3, 0x47, 0xbe,
  0xfb, 0xe3, 0x2f, 0xbe, 0xd6, 0x94, 0xca, 0x3d, 0xc2, 0x5f, 0x01, 0xbe,
  0xf9, 0x2f, 0x42, 0x3e, 0x47, 0x97, 0x85, 0x3d, 0x6e, 0x8e, 0x73, 0xbe,
  0xe7, 0xb6, 0xef, 0x3d, 0xb2, 0x8e, 0x91, 0x3d, 0xb5, 0x96, 0x63, 0x3e,
  0xe0, 0x4e, 0x03, 0x3e, 0x56, 0x39, 0x74, 0x3e, 0xf4, 0x6c, 0x60, 0xbe,
  0x00, 0xe3, 0x57, 0x3b, 0x68, 0x3f, 0x95, 0xbd, 0x6d, 0x88, 0x78, 0xbe,
  0x08, 0x3b, 0xcd, 0xbd, 0x6a, 0x9c, 0x01, 0xbe, 0xa0, 0x7b, 0xe4, 0x3c,
  0xa0, 0x51, 0x05, 0xbd, 0xa4, 0x2f, 0x37, 0xbe, 0x50, 0xac, 0x05, 0x3d,
  0x40, 0x68, 0xd4, 0xbd, 0x58, 0x71, 0xd1, 0xbd, 0xb4, 0xf5, 0x4a, 0x3e,
  0xc8, 0xcb, 0xf3, 0xbd, 0x01, 0x20, 0x31, 0xbe, 0x05, 0xdd, 0x14, 0x3e,
  0xb4, 0xa1, 0x65, 0xbe, 0x3c, 0xa5, 0x48, 0x3e, 0x80, 0x4b, 0xdf, 0x3b,
  0x08, 0xdf, 0x11, 0x3e, 0xc8, 0xbd, 0x3a, 0x3e, 0x80, 0x59, 0xef, 0xbd,
  0x80, 0x9e, 0xc1, 0xbd, 0x4c, 0xcc, 0x4e, 0x3e, 0x1f, 0x76, 0xa3, 0x3d,
  0xd8, 0x48, 0x79, 0xbe, 0x00, 0xdb, 0x7d, 0x3b, 0x10, 0xae, 0x6b, 0xbe,
  0x0b, 0x70, 0x1c, 0x3e, 0x88, 0x78, 0x0c, 0xbe, 0x0c, 0xa7, 0x36, 0x3e,
  0x78, 0x52, 0x78, 0x3d, 0x25, 0x9a, 0x24, 0xbe, 0x37, 0x92, 0x93, 0x3d,
  0xde, 0x99, 0x1d, 0x3e, 0xc5, 0x37, 0x26, 0x3e, 0xd0, 0x16, 0xb7, 0x3d,
  0xe0, 0x80, 0x02, 0x3d, 0x94, 0x24, 0x22, 0x3e, 0x39, 0x38, 0x35, 0x3d,
  0x38, 0x47, 0xbd, 0xbd, 0xea, 0x07, 0x03, 0xbe, 0x84, 0x96, 0x2a, 0xbe,
  0xec, 0xac, 0xc4, 0xbd, 0x49, 0x77, 0xea, 0x3d, 0xc4, 0xaa, 0x65, 0xbe,
  0x7e, 0x38, 0x8e, 0xbd, 0xe4, 0x8d, 0x27, 0xbe, 0x20, 0xdb, 0x9f, 0x3d,
  0x91, 0xf7, 0xfe, 0x3d, 0xec, 0x77, 0xc7, 0x3c, 0x87, 0xc1, 0x61, 0xbe,
  0x00, 0xaa, 0xc6, 0xba, 0x01, 0x70, 0x86, 0xbe, 0x1f, 0x48, 0x0a, 0xbe,
  0x51, 0x0d, 0x03, 0xbc, 0xbc, 0xee, 0x84, 0x3c, 0x4f, 0x85, 0x87, 0xbe,
  0x2f, 0x0e, 0x0d, 0x3d, 0xeb, 0x4e, 0xbd, 0x3c, 0xf5, 0x27, 0x82, 0xbc,
  0xda, 0xe6, 0x37, 0xbe, 0xc0, 0x9f, 0x79, 0x3e, 0x7f, 0x60, 0x99, 0xbc,
  0x98, 0x4d, 0x0a, 0x3e, 0x10, 0xcd, 0x6c, 0x3d, 0xd8, 0x07, 0x12, 0x3e,
  0x2b, 0x9f, 0xa1, 0x3d, 0x57, 0x86, 0x08, 0xbe, 0xd5, 0xba, 0x20, 0xbe,
  0x60, 0xf6, 0xa6, 0xbc, 0xe0, 0xd9, 0x72, 0xbd, 0xed, 0x31, 0x54, 0xbe,
  0x70, 0xf6, 0xb3, 0x3d, 0x40, 0x1a, 0x17, 0xbc, 0x6a, 0x62, 0x4b, 0xbe,
  0x10, 0xb6, 0x7c, 0xbe, 0x30, 0xe4, 0x81, 0xbd, 0x29, 0xd3, 0x68, 0xbe,
  0x06, 0x9f, 0x93, 0xbd, 0x5c, 0x36, 0x3e, 0x3e, 0x40, 0xe7, 0xb9, 0x3d,
  0x80, 0x80, 0x20, 0x3c, 0x90, 0x1e, 0x28, 0x3d, 0xe8, 0xb1, 0xe8, 0xbd,
  0xca, 0x38, 0x04, 0x3d, 0x80, 0x7b, 0x61, 0xbc, 0x8f, 0x1f, 0x12, 0x3d,
  0xad, 0xee, 0x86, 0xbe, 0xd8, 0x7e, 0xc6, 0x3d, 0x50, 0xea, 0x1e, 0x3d,
  0x18, 0x2f, 0x7e, 0x3e, 0x4e, 0xf1, 0x15, 0xbc, 0x30, 0xa9, 0x1c, 0xbd,
  0xe8, 0x7f, 0xe9, 0xbd, 0x00, 0x62, 0xcb, 0x3d, 0xb6, 0x1f, 0x40, 0xbe,
  0xe0, 0x4f, 0x3c, 0x3e, 0xc0, 0xa3, 0x62, 0xbd, 0xd8, 0xe4, 0xa2, 0x3d,
  0x00, 0x54, 0xa3, 0x3c, 0xc4, 0x39, 0x24, 0x3e, 0x60, 0x30, 0xcb, 0xbd,
  0x50, 0x89, 0x2d, 0xbe, 0x80, 0x92, 0xef, 0xbb, 0x20, 0xbc, 0xa6, 0x3d,
  0xc0, 0xdb, 0x40, 0x3d, 0xdc, 0x3e, 0x5a, 0x3e, 0x5c, 0x1a, 0x15, 0x3e,
  0x90, 0x9f, 0x2a, 0xbe, 0x60, 0xc5, 0x46, 0x3e, 0x18, 0x0c, 0x36, 0xbe,
  0xc0, 0xef, 0xd7, 0xbc, 0xc0, 0xd9, 0x94, 0xbd, 0xb0, 0x4f, 0x2d, 0xbd,
  0x1c, 0x5a, 0x6d, 0xbe, 0x00, 0x3d, 0x11, 0xbe, 0xb8, 0x8c, 0x10, 0xbe,
  0x14, 0x35, 0x56, 0x3e, 0x60, 0x97, 0x3c, 0x3e, 0xdc, 0x31, 0x0e, 0x3e,
  0x60, 0x8f, 0xba, 0xbd, 0xcc, 0x4b, 0x5c, 0xbe, 0x00, 0x5d, 0x5e, 0xbb,
  0xd8, 0x45, 0xb8, 0x3d, 0xd4, 0x44, 0x59, 0x3e, 0x4c, 0x6d, 0x51, 0x3e,
  0x00, 0x5c, 0x6d, 0xbd, 0x60, 0x17, 0xf8, 0xbc, 0xe0, 0x01, 0x4e, 0xbe,
  0x38, 0xa9, 0x9e, 0xbd, 0x20, 0xa6, 0x71, 0x3e, 0xb8, 0x3c, 0xe4, 0xbd,
  0xf8, 0xaf, 0x16, 0x3e, 0x80, 0x5f, 0x74, 0x3d, 0x00, 0x8d, 0x88, 0xbc,
  0xdc, 0x5b, 0x54, 0x3e, 0x38, 0x26, 0x1e, 0x3e, 0x60, 0x9f, 0x94, 0x3c,
  0x68, 0xda, 0x94, 0xbd, 0xbc, 0x53, 0x6a, 0x3e, 0xc0, 0xfd, 0x7a, 0x3c,
  0xa0, 0x41, 0x4b, 0xbe, 0xe0, 0xed, 0xf3, 0xbd, 0xd0, 0xda, 0x7b, 0xbd,
  0xd8, 0x26, 0x5a, 0xbe, 0x98, 0xb2, 0xe5, 0x3d, 0x50, 0x83, 0x63, 0xbd,
  0x4c, 0xeb, 0x5e, 0xbe, 0x70, 0xb4, 0x4d, 0xbe, 0xdc, 0x97, 0x31, 0xbe,
  0xb0, 0x80, 0x13, 0xbe, 0xc8, 0xf7, 0x07, 0xbe, 0x1c, 0x37, 0x79, 0xbe,
  0x08, 0x7f, 0xc9, 0xbd, 0x20, 0x01, 0x7f, 0xbe, 0xe0, 0x92, 0x93, 0xbc,
  0x20, 0x89, 0x86, 0x3c, 0x30, 0xe6, 0x81, 0xbd, 0x54, 0x10, 0x2a, 0x3e,
  0x80, 0xf0, 0x5e, 0xbd, 0xc0, 0x46, 0x24, 0xbd, 0x88, 0xf7, 0xc4, 0x3d,
  0xe8, 0xff, 0xd6, 0x3d, 0x40, 0x41, 0x7f, 0xbd, 0xd0, 0xd6, 0x6e, 0xbd,
  0xc0, 0x23, 0x0d, 0x3d, 0x40, 0x78, 0xa8, 0xbd, 0x8c, 0x88, 0x33, 0x3e,
  0xf0, 0x0d, 0x7f, 0x3d, 0x18, 0x54, 0x8a, 0xbd, 0x00, 0x6b, 0x85, 0xbc,
  0x00, 0x91, 0xf0, 0xbb, 0x30, 0xff, 0xe5, 0x3d, 0xd0, 0x8a, 0xf4, 0xbd,
  0xd0, 0x85, 0x60, 0x3e, 0xc0, 0xfd, 0xc3, 0xbc, 0xf0, 0x65, 0x87, 0x3d,
  0x4c, 0x4b, 0x15, 0xbe, 0xd0, 0x1d, 0x74, 0xbe, 0x50, 0x29, 0xf7, 0x3d,
  0xac, 0x43, 0x2d, 0x3e, 0xc0, 0x95, 0x81, 0xbc, 0x10, 0x38, 0x2a, 0xbd,
  0xa0, 0xce, 0x3a, 0xbe, 0x64, 0x54, 0x53, 0xbe, 0x50, 0xa4, 0xeb, 0xbd,
  0x18, 0x71, 0x94, 0x3d, 0xc0, 0x89, 0x38, 0x3e, 0x00, 0x04, 0xd6, 0xbd,
  0xcc, 0xaa, 0x6a, 0x3e, 0x20, 0x41, 0x20, 0xbd, 0x48, 0xf6, 0xa4, 0x3d,
  0x50, 0xe0, 0x37, 0x3e, 0x18, 0xbc, 0xb1, 0x3d, 0x40, 0x3e, 0x1b, 0x3d,
  0x30, 0x89, 0x4a, 0x3e, 0x78, 0x3d, 0xa4, 0xbd, 0xfc, 0x7f, 0x04, 0xbe,
  0x18, 0x80, 0x15, 0xbe, 0x98, 0x29, 0x16, 0x3e, 0x00, 0x0a, 0x48, 0x3c,
  0xb0, 0x67, 0x96, 0xbd, 0x00, 0xe1, 0xc1, 0x3d, 0xa0, 0xc3, 0xc8, 0x3d,
  0xfc, 0x3a, 0x3d, 0xbe, 0x20, 0x4f, 0xe2, 0xbd, 0x44, 0x61, 0x6d, 0xbe,
  0x90, 0x3b, 0x23, 0x3d, 0xe0, 0x28, 0x8d, 0x3c, 0x00, 0x36, 0xfc, 0x3b,
  0x78, 0xd3, 0x65, 0x3e, 0x88, 0x31, 0x07, 0x3e, 0xb0, 0x88, 0x4c, 0x3e,
  0x70, 0xaf, 0x75, 0x3d, 0x30, 0xaa, 0x67, 0xbe, 0x08, 0x40, 0xe7, 0xbd,
  0xa0, 0x2a, 0x62, 0x3e, 0x40, 0x6c, 0x96, 0x3d, 0xb4, 0x0c, 0x22, 0x3e,
  0x00, 0x94, 0x64, 0xbd, 0x50, 0x88, 0x4e, 0x3d, 0xc0, 0x18, 0xab, 0x3c,
  0x40, 0x6f, 0xa5, 0x3c, 0xe8, 0xfe, 0x4c, 0x3e, 0x44, 0xfc, 0x75, 0xbe,
  0xdd, 0xc9, 0x88, 0x3e, 0x09, 0xdd, 0x6e, 0x3e, 0xc8, 0xe1, 0xe5, 0xbd,
  0x54, 0x0a, 0xa8, 0x3e, 0x5a, 0x4a, 0xbe, 0x3e, 0x50, 0x0d, 0x9f, 0xbd,
  0x3c, 0xfc, 0x7b, 0xbe, 0x9d, 0x71, 0x99, 0xbd, 0x00, 0x0b, 0x01, 0xbd,
  0x3c, 0x5b, 0x90, 0x3d, 0x9c, 0x8a, 0x88, 0x3b, 0x78, 0x5d, 0x3a, 0xbe,
  0x36, 0x95, 0x33, 0x3e, 0xd8, 0x98, 0x66, 0xbe, 0xc1, 0xb2, 0x99, 0x3e,
  0x0a, 0xab, 0xfb, 0xbd, 0xf2, 0x87, 0xf1, 0x3d, 0x8c, 0xf3, 0xb5, 0x3e,
  0xc8, 0x84, 0x6c, 0xbe, 0xc2, 0xe1, 0x1c, 0xbd, 0x47, 0x5c, 0x15, 0x3e,
  0x61, 0x07, 0x4b, 0xbd, 0x06, 0xd0, 0xa7, 0x3e, 0xbb, 0x9d, 0xca, 0xbd,
  0xf9, 0xb7, 0xdc, 0x3d, 0x2e, 0x4a, 0x44, 0x3d, 0xb5, 0x87, 0xce, 0x3d,
  0x72, 0x10, 0x02, 0x3e, 0xdc, 0x55, 0x32, 0x3e, 0x8e, 0x73, 0xda, 0xbb,
  0x58, 0x3d, 0x98, 0xbd, 0x88, 0x20, 0x13, 0x3e, 0x82, 0x8c, 0xa5, 0x3e,
  0xc6, 0xbf, 0x4e, 0x3d, 0x75, 0x1d, 0x9e, 0x3e, 0x98, 0x99, 0x05, 0xbd,
  0x00, 0x79, 0x91, 0xbc, 0x50, 0x64, 0x84, 0x3d, 0xf6, 0xc8, 0x68, 0x3e,
  0x88, 0x96, 0xb1, 0xbd, 0x44, 0x4f, 0x2c, 0x3e, 0xdc, 0x65, 0xc9, 0x3d,
  0xa8, 0x89, 0xbf, 0x3d, 0x58, 0xdc, 0x29, 0x3e, 0xd1, 0x84, 0x6f, 0x3e,
  0xcc, 0x7e, 0x48, 0x3c, 0x39, 0xb7, 0xc6, 0x3d, 0x50, 0x50, 0x67, 0xbd,
  0xd4, 0x73, 0x1a, 0xbe, 0xdc, 0x66, 0x7d, 0x3e, 0x18, 0x6f, 0x0e, 0xbe,
  0x28, 0x50, 0x40, 0x3e, 0x88, 0xf8, 0x15, 0xbe, 0xb7, 0x7a, 0x75, 0x3e,
  0xf4, 0x9f, 0x37, 0x3e, 0xd0, 0xf8, 0x72, 0xbe, 0x18, 0x5c, 0xe9, 0xbd,
  0xbc, 0x17, 0x66, 0x3e, 0x51, 0xdc, 0xd5, 0x3d, 0xd0, 0x94, 0xb6, 0xbd,
  0xf8, 0x4a, 0x66, 0xbe, 0xd8, 0x0c, 0x54, 0x3e, 0x37, 0xc2, 0x0d, 0x3e,
  0xab, 0x98, 0x11, 0x3e, 0xf3, 0xa8, 0x16, 0x3d, 0x84, 0xc3, 0x92, 0x3d,
  0x68, 0x8c, 0x67, 0xbe, 0xfa, 0xb9, 0x08, 0x3e, 0x26, 0xe6, 0x2c, 0x3c,
  0x9f, 0x01, 0x10, 0xbd, 0xf4, 0xc0, 0x6c, 0xbe, 0xa1, 0x99, 0x76, 0x3e,
  0x60, 0x73, 0x2a, 0xbe, 0xf8, 0x23, 0xa1, 0x3e, 0x8a, 0x6d, 0x02, 0xbd,
  0x84, 0xec, 0x43, 0xbe, 0x80, 0x01, 0x9a, 0x3e, 0x8c, 0x49, 0x10, 0xbe,
  0x02, 0x9c, 0x6f, 0x3e, 0xa9, 0x6f, 0x8a, 0x3e, 0xe4, 0xd0, 0x40, 0x3d,
  0x71, 0x28, 0x4b, 0x3d, 0xfc, 0x5c, 0x41, 0xbe, 0x55, 0x64, 0x17, 0xbc,
  0xe2, 0x4a, 0x8f, 0x3e, 0x81, 0xf1, 0xbb, 0x3d, 0x80, 0x6f, 0x9d, 0x3e,
  0x89, 0x69, 0x7d, 0x3e, 0x33, 0xed, 0xa5, 0x3d, 0x48, 0xe7, 0x8e, 0xbc,
  0xaf, 0x22, 0x6e, 0x3d, 0x68, 0xf9, 0x23, 0x3e, 0x2c, 0x57, 0x46, 0x3e,
  0x88, 0xc7, 0x3a, 0x3d, 0x00, 0xcc, 0xac, 0x3c, 0xa0, 0x65, 0x34, 0xbe,
  0x00, 0x89, 0x08, 0x3e, 0xe8, 0x99, 0x27, 0xbe, 0xae, 0x88, 0x22, 0x3e,
  0x9b, 0x27, 0x3b, 0x3e, 0x88, 0x86, 0xfb, 0x3d, 0xd8, 0xd1, 0x1c, 0x3e,
  0xb4, 0xc6, 0x24, 0x3e, 0xd8, 0xd8, 0x8d, 0xbd, 0xf4, 0xba, 0x1f, 0xbe,
  0x77, 0xf4, 0x71, 0x3e, 0x18, 0x32, 0xc1, 0x3d, 0x38, 0x34, 0x5d, 0xbe,
  0x1e, 0xe0, 0x24, 0x3e, 0x91, 0x44, 0x8c, 0x3e, 0xcf, 0x0a, 0x59, 0x3e,
  0x88, 0xe3, 0x44, 0x3e, 0x60, 0x6d, 0x13, 0x3d, 0x8c, 0x66, 0x69, 0x3e,
  0x8c, 0x72, 0x31, 0xbe, 0x56, 0xb3, 0x67, 0x3e, 0x28, 0x8a, 0x3a, 0xbe,
  0x32, 0x7c, 0x7d, 0x3e, 0xe1, 0xab, 0xb3, 0x3e, 0xbc, 0xac, 0x5b, 0x3e,
  0x20, 0xef, 0x80, 0x3d, 0xd8, 0x9a, 0xfe, 0xbd, 0x71, 0xde, 0xde, 0x3d,
  0x30, 0x1f, 0x01, 0xbd, 0x50, 0x56, 0x9b, 0x3d, 0x1c, 0xda, 0x88, 0x3e,
  0xa5, 0x38, 0x54, 0x3e, 0x51, 0x24, 0xaa, 0x3e, 0xf5, 0xc8, 0x5e, 0x3e,
  0x63, 0x54, 0x9a, 0x3e, 0x80, 0xf4, 0x20, 0x3c, 0xb1, 0x6e, 0x95, 0x3b,
  0x84, 0xe2, 0x8b, 0x3e, 0xe7, 0x34, 0x7e, 0x3e, 0x1c, 0x6a, 0x70, 0xbe,
  0x3f, 0xeb, 0xa2, 0x3d, 0x80, 0x89, 0xd2, 0xbb, 0x32, 0x84, 0x79, 0x3e,
  0x58, 0xf3, 0x81, 0x3e, 0xec, 0xac, 0x0b, 0xbe, 0x26, 0xdd, 0x3f, 0x3e,
  0x34, 0xae, 0x64, 0xbe, 0x72, 0x74, 0xab, 0x3e, 0x96, 0x61, 0x19, 0x3c,
  0x34, 0x9d, 0xb2, 0x3d, 0x01, 0x5f, 0x02, 0x3e, 0x98, 0x00, 0xa2, 0xbd,
  0xf6, 0x91, 0x0f, 0x3e, 0xaf, 0x88, 0x0c, 0x3e, 0x31, 0x48, 0x9b, 0xbd,
  0x9d, 0xeb, 0x0c, 0x3e, 0xf3, 0x44, 0x79, 0x3c, 0x17, 0xad, 0x10, 0x3e,
  0xe9, 0xb0, 0xbe, 0x3e, 0x3d, 0x29, 0x33, 0x3e, 0x5c, 0x53, 0xb5, 0x3e,
  0x80, 0xb2, 0x92, 0xbb, 0xc5, 0x8e, 0xed, 0xbd, 0xc0, 0xc9, 0x4b, 0xbd,
  0x50, 0xe9, 0x57, 0x3d, 0x2d, 0x35, 0x19, 0x3e, 0xc2, 0xc4, 0x42, 0x3e,
  0x13, 0xff, 0x2a, 0xbd, 0x8b, 0x68, 0x32, 0x3c, 0x28, 0x54, 0xd1, 0x3d,
  0xc0, 0x58, 0x50, 0x3c, 0x13, 0xb0, 0x8b, 0xbd, 0xc8, 0xd1, 0x3d, 0x3e,
  0x70, 0xdb, 0x27, 0xbd, 0xb8, 0x08, 0x6b, 0xbe, 0x38, 0x2a, 0x80, 0xbd,
  0x08, 0x73, 0x2f, 0x3e, 0xe7, 0x38, 0x83, 0x3e, 0xd0, 0x1c, 0xb2, 0x3e,
  0x11, 0x65, 0x78, 0x3e, 0x0c, 0x69, 0x70, 0x3e, 0x00, 0x7f, 0xa1, 0xbc,
  0xb0, 0x32, 0xd1, 0xbd, 0x3c, 0xae, 0x38, 0xbe, 0x43, 0x47, 0xca, 0xbd,
  0x90, 0x87, 0x7a, 0xbd, 0x6c, 0xdf, 0xb6, 0x3e, 0xc6, 0x33, 0x11, 0x3e,
  0x00, 0xf4, 0x13, 0xbd, 0x14, 0xc9, 0x32, 0x3e, 0x00, 0xb4, 0xb6, 0x3a,
  0xab, 0x36, 0x8c, 0x3e, 0xcc, 0xe3, 0x2b, 0xbe, 0x78, 0x37, 0x61, 0xbe,
  0x04, 0xfb, 0x4c, 0x3d, 0x60, 0x2e, 0x2d, 0x3e, 0x95, 0xdb, 0x9d, 0x3e,
  0x10, 0xaa, 0x28, 0xbe, 0x08, 0x22, 0xc7, 0xbd, 0x30, 0x24, 0x31, 0xbe,
  0xb0, 0xca, 0x21, 0x3d, 0x38, 0xe0, 0x84, 0x3d, 0xc0, 0x92, 0xd4, 0x3c,
  0x48, 0xbc, 0x52, 0xbe, 0x3c, 0xbd, 0x32, 0xbe, 0x40, 0xba, 0x22, 0xbd,
  0xd4, 0x7b, 0x3c, 0xbe, 0x80, 0x80, 0xcf, 0x3d, 0x60, 0x21, 0xd7, 0x3d,
  0x30, 0xd2, 0x38, 0x3d, 0x64, 0x73, 0x6f, 0xbe, 0xf0, 0x19, 0x77, 0x3e,
  0x24, 0xdc, 0x04, 0x3e, 0x38, 0x3c, 0x4a, 0xbe, 0x78, 0xe1, 0xb0, 0xbd,
  0xa0, 0x79, 0xd6, 0xbc, 0x08, 0xdb, 0x4f, 0xbe, 0x30, 0xf9, 0xbf, 0x3d,
  0x88, 0x0b, 0x3a, 0xbe, 0xd0, 0x67, 0x9f, 0x3d, 0x4c, 0xfa, 0x4e, 0xbe,
  0x50, 0x78, 0x23, 0xbe, 0x30, 0xcf, 0xa5, 0x3d, 0x34, 0x34, 0x6c, 0xbe,
  0x60, 0x51, 0x0c, 0x3d, 0x58, 0x01, 0x94, 0x3d, 0xd8, 0x2d, 0xac, 0x3d,
  0xa8, 0xab, 0xc2, 0x3d, 0x80, 0x4f, 0xdf, 0x3b, 0x3c, 0xdb, 0x6b, 0xbe,
  0x70, 0x89, 0x3a, 0xbe, 0xb4, 0x4b, 0x70, 0xbe, 0x0c, 0x02, 0x43, 0xbe,
  0x70, 0xc1, 0x44, 0xbe, 0xe8, 0x12, 0x0c, 0xbe, 0x6c, 0x30, 0x74, 0xbe,
  0x60, 0x1f, 0x91, 0xbc, 0xc0, 0xe3, 0x32, 0xbe, 0x70, 0x86, 0xd1, 0x3d,
  0xd8, 0x3a, 0x5f, 0xbe, 0x38, 0xd4, 0xfc, 0xbd, 0x88, 0x48, 0xd2, 0x3d,
  0x58, 0x58, 0xf1, 0x3d, 0x24, 0xb9, 0x72, 0xbe, 0xd0, 0x2b, 0x16, 0x3d,
  0x20, 0x10, 0x7b, 0x3e, 0x78, 0x2c, 0x1f, 0x3e, 0xe8, 0x26, 0x28, 0x3e,
  0x70, 0x07, 0x45, 0xbd, 0xc4, 0x01, 0x20, 0xbe, 0x40, 0xb5, 0x2c, 0xbd,
  0x50, 0xb1, 0xce, 0xbd, 0x80, 0xec, 0x60, 0xbe, 0x90, 0xeb, 0x2f, 0xbe,
  0x10, 0xf0, 0x13, 0xbd, 0x28, 0x8a, 0x7b, 0x3e, 0x38, 0x72, 0xd2, 0x3d,
  0x04, 0x8e, 0x22, 0x3e, 0x10, 0xcd, 0x5f, 0x3e, 0x20, 0x42, 0x25, 0x3d,
  0x50, 0x51, 0x08, 0x3d, 0xbc, 0x01, 0x90, 0xbc, 0x7b, 0xe9, 0x5c, 0xbe,
  0xa0, 0xb0, 0xae, 0xbc, 0x49, 0xd3, 0x1f, 0x3e, 0x31, 0x2d, 0x18, 0x3d,
  0xc9, 0xb5, 0x53, 0x3e, 0xe0, 0x76, 0xc6, 0xbc, 0x21, 0xf9, 0x37, 0x3e,
  0xd8, 0xc9, 0xf2, 0x3d, 0x1e, 0x1b, 0xe3, 0x3d, 0xf2, 0x4e, 0x35, 0xbe,
  0x78, 0xf3, 0x1d, 0xbe, 0x22, 0x7d, 0xad, 0xbd, 0x84, 0x7f, 0x1d, 0xbe,
  0x3f, 0x9c, 0x04, 0x3d, 0x85, 0x4b, 0xc9, 0x3d, 0xbb, 0x85, 0xf3, 0xbc,
  0xd1, 0x7b, 0x22, 0x3e, 0xd8, 0x4c, 0xd3, 0x3d, 0xfa, 0x13, 0xf7, 0x3d,
  0x95, 0xbd, 0x33, 0x3e, 0x7d, 0xfa, 0x8c, 0xbe, 0xc6, 0x97, 0x0a, 0xbe,
  0xcb, 0xda, 0xed, 0x3d, 0x76, 0xc4, 0x80, 0x3d, 0x23, 0x1f, 0x92, 0xbd,
  0xf9, 0x2a, 0x36, 0xbd, 0x05, 0xae, 0x3a, 0xbe, 0x80, 0x4b, 0xd3, 0x3b,
  0x75, 0x86, 0x3b, 0xbe, 0xd8, 0xb7, 0xad, 0xbd, 0x7c, 0xef, 0x26, 0x3e,
  0x01, 0x91, 0x11, 0x3d, 0x33, 0x82, 0x39, 0x3e, 0x7d, 0x8d, 0xf2, 0x3c,
  0x38, 0x77, 0x80, 0xbd, 0xe0, 0x3b, 0x35, 0x3d, 0xe0, 0x25, 0xa8, 0xbd,
  0x79, 0xd6, 0x3d, 0xbe, 0xc8, 0x8f, 0x1b, 0x3e, 0x74, 0x88, 0x1b, 0x3e,
  0x21, 0x38, 0x24, 0xbd, 0xd4, 0x14, 0x09, 0x3e, 0x04, 0xe0, 0x09, 0x3e,
  0x69, 0xe1, 0x36, 0x3e, 0x24, 0x28, 0xfe, 0x3d, 0x2e, 0xa6, 0xae, 0xbd,
  0x98, 0x40, 0x9e, 0xbd, 0xa4, 0xdb, 0x71, 0x3e, 0x08, 0x53, 0x53, 0x3e,
  0x20, 0xb4, 0x10, 0xbd, 0x2c, 0x9f, 0x3a, 0x3e, 0xbc, 0xdd, 0x61, 0x3e,
  0x88, 0x7b, 0x92, 0xbe, 0x61, 0x80, 0x80, 0xbe, 0xd8, 0xa5, 0xfb, 0x3d,
  0xe0, 0xf0, 0x14, 0xbe, 0x60, 0x48, 0x51, 0xbe, 0xb4, 0xe1, 0xc3, 0x3c,
  0xb0, 0x3a, 0x1f, 0xbd, 0x18, 0x3f, 0x73, 0xbe, 0xa8, 0x53, 0x49, 0xbe,
  0xed, 0x61, 0x9f, 0x3d, 0x19, 0x5d, 0x73, 0xbe, 0xed, 0x10, 0xa8, 0x3b,
  0x9d, 0xd5, 0xd1, 0xbd, 0x00, 0xdd, 0xd5, 0x3b, 0xc1, 0x4b, 0x0c, 0x3e,
  0x43, 0xf8, 0x4d, 0xbe, 0x8c, 0x49, 0x24, 0xbe, 0xb8, 0x09, 0x21, 0xbe,
  0x49, 0x71, 0x03, 0x3d, 0xf4, 0xa5, 0x56, 0xbe, 0x4b, 0xad, 0x37, 0xbe,
  0xae, 0x46, 0x88, 0xbe, 0x74, 0x97, 0x2e, 0x3e, 0xbf, 0xeb, 0x37, 0x3e,
  0xd0, 0x46, 0x46, 0x3d, 0xb3, 0xfb, 0x45, 0x3e, 0xa2, 0xdf, 0xc9, 0xbd,
  0x27, 0x90, 0xf1, 0xbc, 0xc6, 0x1d, 0x2d, 0x3e, 0xb0, 0xe1, 0x78, 0x3e,
  0x0f, 0x9e, 0x7a, 0xbe, 0x78, 0xf9, 0x14, 0xbe, 0x57, 0xec, 0x89, 0x3d,
  0xaf, 0xc7, 0x3c, 0xbe, 0x37, 0x7e, 0xbe, 0xbc, 0x6d, 0xe6, 0xa4, 0xbd,
  0xef, 0xc8, 0x98, 0xbd, 0xc8, 0xc2, 0xdd, 0x3d, 0x0c, 0xab, 0x4b, 0x3e,
  0x94, 0x32, 0x3a, 0xbe, 0x4a, 0x86, 0x2a, 0x3e, 0x20, 0xe1, 0xc7, 0xbc,
  0xa8, 0x58, 0x7f, 0xbe, 0xb3, 0x62, 0x1d, 0xbe, 0xae, 0xfd, 0x01, 0x3d,
  0x53, 0x5a, 0x7e, 0xbe, 0xa0, 0x74, 0x59, 0x3d, 0xcc, 0x8f, 0x09, 0x3e,
  0xc0, 0xbe, 0xc7, 0x3d, 0x3c, 0xd4, 0xcd, 0x3d, 0x7c, 0x2f, 0x4e, 0x3e,
  0x00, 0x00, 0xc0, 0x34, 0x91, 0x1a, 0xd0, 0x3c, 0x70, 0x86, 0x21, 0x3d,
  0x2c, 0xa4, 0x42, 0xbe, 0x1a, 0xc6, 0x25, 0xbd, 0x47, 0xf7, 0x48, 0x3e,
  0xcd, 0x44, 0x02, 0x3e, 0xfc, 0x34, 0x52, 0xbe, 0xc0, 0x0f, 0x25, 0x3d,
  0x48, 0x2a, 0xab, 0xbd, 0x44, 0x2e, 0x42, 0x3e, 0xd2, 0xeb, 0xeb, 0xbd,
  0x20, 0x67, 0xaf, 0x3c, 0x88, 0x48, 0x78, 0xbe, 0xa4, 0x77, 0x15, 0x3e,
  0xd0, 0xc4, 0x6a, 0xbd, 0x10, 0xb1, 0x55, 0x3e, 0x28, 0xb1, 0x97, 0xbd,
  0xb6, 0x0e, 0x66, 0xbe, 0xc4, 0x9b, 0x04, 0x3e, 0x94, 0x21, 0x4a, 0x3e,
  0xbc, 0x42, 0x67, 0xbe, 0xa2, 0xc6, 0xad, 0x3d, 0x59, 0x37, 0x79, 0xbc,
  0xf9, 0x52, 0xb1, 0x3d, 0xad, 0x33, 0xbd, 0x3c, 0x9c, 0xfc, 0x76, 0x3e,
  0xba, 0x19, 0xc2, 0x3c, 0xaa, 0xc0, 0x0b, 0x3d, 0x1f, 0xd1, 0xb8, 0xbc,
  0x48, 0xbd, 0x93, 0x3d, 0x60, 0x00, 0x6d, 0x3e, 0x94, 0x3b, 0x5f, 0x3e,
  0x99, 0x3b, 0x7f, 0x3e, 0xd0, 0x80, 0x52, 0x3e, 0x28, 0xce, 0x8e, 0x3d,
  0xbd, 0xba, 0x20, 0x3d, 0x64, 0x21, 0x6d, 0x3e, 0x3a, 0x23, 0x3c, 0x3d,
  0x40, 0xe4, 0x01, 0xbd, 0xe9, 0x52, 0x9b, 0x3e, 0xdc, 0x7c, 0x9f, 0x3e,
  0x40, 0xeb, 0x89, 0xbd, 0x05, 0x9c, 0x57, 0x3e, 0x12, 0x50, 0xba, 0x3e,
  0x3f, 0xfc, 0xdf, 0x3d, 0x70, 0x52, 0x81, 0x3e, 0xdf, 0x0c, 0x3b, 0xbd,
  0x66, 0xa0, 0x9c, 0xbd, 0xfc, 0x4c, 0xb0, 0x3e, 0xbe, 0x0e, 0x66, 0x3d,
  0x31, 0x51, 0xa2, 0x3e, 0x70, 0x25, 0xce, 0x3d, 0xb4, 0xe0, 0xc4, 0xbd,
  0x1c, 0x7b, 0x5f, 0xbe, 0xf0, 0xe7, 0x11, 0x3e, 0x1b, 0x4f, 0x6b, 0x3e,
  0x90, 0x7d, 0x42, 0xbd, 0x35, 0x4e, 0x94, 0x3e, 0xeb, 0x89, 0x9c, 0x3e,
  0x90, 0x41, 0x61, 0xbd, 0x70, 0x75, 0x04, 0x3d, 0xdd, 0xdd, 0x59, 0xbc,
  0x80, 0xe4, 0x92, 0xbd, 0x30, 0x3b, 0x06, 0x3d, 0xb0, 0x8e, 0x42, 0xbd,
  0xe8, 0xd1, 0x92, 0x3d, 0xb0, 0x52, 0x5e, 0x3d, 0xf8, 0x26, 0x13, 0x3c,
  0xa0, 0x2a, 0x56, 0x3d, 0x1b, 0x95, 0x1c, 0xbe, 0x5c, 0xe9, 0x34, 0xbe,
  0x00, 0x11, 0x63, 0x3e, 0x64, 0xb6, 0x42, 0xbe, 0x50, 0x34, 0x43, 0x3e,
  0x7b, 0x76, 0x28, 0x3e, 0xd8, 0x81, 0xc9, 0xbd, 0xe4, 0x01, 0x17, 0x3e,
  0x71, 0xc5, 0x8e, 0x3a, 0x04, 0xcc, 0x60, 0x3e, 0x04, 0xd5, 0x1e, 0x3e,
  0x58, 0xd3, 0xdf, 0xbd, 0x71, 0xa2, 0x55, 0x3d, 0x78, 0xcd, 0x9f, 0xbd,
  0xf8, 0xef, 0x62, 0x3e, 0x34, 0x44, 0x85, 0x3e, 0x50, 0xe3, 0x51, 0x3d,
  0x3c, 0x0a, 0x8a, 0x3e, 0x0e, 0xde, 0x60, 0x3e, 0x38, 0xa4, 0xfc, 0x3d,
  0x18, 0x58, 0x8e, 0x3d, 0x4e, 0x3d, 0x2b, 0xbe, 0x85, 0xbd, 0x53, 0xbd,
  0x74, 0x76, 0x01, 0xbe, 0x50, 0x38, 0x4b, 0x3d, 0x98, 0x28, 0x7a, 0x3d,
  0xec, 0x36, 0x6a, 0xbe, 0xe2, 0xc2, 0xdf, 0x3d, 0xfd, 0x7b, 0x30, 0xbe,
  0xac, 0xcc, 0x48, 0x3e, 0xc5, 0x3c, 0x37, 0xbe, 0xf8, 0xdd, 0x7e, 0x3e,
  0x26, 0x39, 0x41, 0xbe, 0xe0, 0xc0, 0x6f, 0x3d, 0x66, 0x53, 0x65, 0x3e,
  0x69, 0xf3, 0x70, 0x3c, 0xa0, 0x07, 0x70, 0xbd, 0x5c, 0xe6, 0xc1, 0x3d,
  0x0f, 0xa1, 0xe8, 0xbd, 0xa7, 0x66, 0x2d, 0x3e, 0x3f, 0xff, 0xa3, 0xbd,
  0xae, 0xfc, 0x3b, 0x3e, 0xe7, 0x5e, 0x7d, 0xbe, 0x9c, 0x02, 0x8a, 0xbe,
  0x9b, 0x20, 0xc2, 0xbd, 0x03, 0xa9, 0x1f, 0x3e, 0xb0, 0x25, 0x79, 0x3d,
  0xd9, 0x3f, 0x60, 0x3d, 0x6c, 0x6c, 0x36, 0xbe, 0x18, 0x3f, 0xe3, 0x3d,
  0x78, 0xa4, 0x1d, 0x3c, 0x66, 0x2d, 0x29, 0x3e, 0xd9, 0xb3, 0xc6, 0xbd,
  0xdc, 0xc9, 0x97, 0xbd, 0x50, 0xeb, 0xe0, 0x3d, 0x60, 0x9f, 0xdf, 0xbc,
  0x7e, 0xc3, 0xb1, 0xbc, 0x8c, 0x9a, 0x24, 0x3e, 0xc0, 0x3e, 0x91, 0x3c,
  0x90, 0xf0, 0xb5, 0x3d, 0x98, 0x36, 0xd2, 0x3d, 0xc0, 0xc4, 0xf6, 0x3d,
  0x51, 0xf2, 0xf9, 0xbd, 0x53, 0x96, 0x93, 0x3d, 0xc6, 0x1b, 0x73, 0xbe,
  0xb0, 0x3f, 0xb1, 0x3d, 0x04, 0xdb, 0x71, 0xbe, 0xc0, 0xfa, 0x83, 0x3d,
  0x3c, 0xc6, 0x1f, 0xbe, 0x67, 0x25, 0x8c, 0x3d, 0x88, 0x19, 0x7e, 0xbe,
  0x52, 0x71, 0x9a, 0x3d, 0xe9, 0xb3, 0x25, 0xbe, 0xe4, 0x2c, 0x6b, 0xbe,
  0x80, 0x5e, 0x86, 0x3b, 0x50, 0xd4, 0x87, 0x3d, 0xbf, 0x25, 0xba, 0x3d,
  0xe0, 0x5f, 0x69, 0x3d, 0xf0, 0x79, 0x36, 0xbd, 0x70, 0x62, 0x64, 0xbd,
  0x90, 0xb5, 0x24, 0x3e, 0x10, 0x1e, 0x1f, 0xbe, 0xf8, 0x35, 0x18, 0xbe,
  0x16, 0xfe, 0x30, 0x3e, 0xa8, 0xf6, 0xf5, 0xbd, 0x09, 0xf7, 0xf3, 0x3d,
  0x7a, 0xf9, 0x88, 0xbd, 0x8f, 0x98, 0xbe, 0xbd, 0xf0, 0xa7, 0x21, 0xbd,
  0x33, 0x51, 0xb8, 0x3b, 0x78, 0x4d, 0x38, 0xbe, 0x83, 0xc2, 0x54, 0x3d,
  0xc9, 0xc2, 0x1f, 0x3e, 0x90, 0x70, 0x57, 0xbe, 0x59, 0x67, 0xaf, 0x3c,
  0x60, 0x43, 0x4e, 0xbe, 0xea, 0x18, 0x2f, 0x3d, 0x83, 0xec, 0x23, 0xbe,
  0x7e, 0x9f, 0xe3, 0x3a, 0x35, 0x83, 0xfe, 0xbd, 0xd0, 0x58, 0x34, 0xbd,
  0x7a, 0x7d, 0xf8, 0x3d, 0x68, 0xd3, 0x43, 0xbe, 0x4a, 0x50, 0xd9, 0xbc,
  0x0f, 0xe1, 0x0b, 0xbe, 0xe0, 0x82, 0x32, 0x3e, 0x4c, 0x42, 0xfc, 0x3c,
  0xd4, 0x52, 0x6b, 0x3e, 0x4a, 0x4e, 0x18, 0xbe, 0x98, 0xe9, 0x39, 0xbc,
  0xa4, 0x5f, 0x37, 0x3e, 0x89, 0x07, 0x58, 0x3d, 0xb4, 0x48, 0x78, 0xbe,
  0xb4, 0xb6, 0x4d, 0x3e, 0x53, 0x1a, 0x44, 0x3e, 0xb0, 0x09, 0x99, 0x3d,
  0xc4, 0x60, 0xde, 0x3d, 0xce, 0x6d, 0xb7, 0xbd, 0xd8, 0x04, 0x78, 0x3e,
  0x7c, 0x6a, 0x1c, 0x3e, 0xc6, 0xbd, 0x8d, 0xbd, 0xe0, 0xf4, 0xce, 0x3c,
  0x00, 0xb3, 0x31, 0x3b, 0x68, 0xc3, 0xe6, 0xbd, 0x60, 0x08, 0x87, 0xbc,
  0x50, 0x71, 0x48, 0xbd, 0x00, 0x34, 0x9b, 0xbd, 0x84, 0xe5, 0xe3, 0x3d,
  0xba, 0x97, 0x48, 0xbe, 0xd0, 0x38, 0xf8, 0xbd, 0x88, 0x23, 0x36, 0xbe,
  0xf0, 0x03, 0xf5, 0xbd, 0x00, 0xfc, 0xa0, 0xba, 0x73, 0x2b, 0x2b, 0x3e,
  0x8c, 0xcf, 0x53, 0xbe, 0xe4, 0xad, 0x64, 0xbe, 0x3e, 0xd3, 0x40, 0x3e,
  0x7c, 0x6c, 0x7d, 0xbe, 0xe4, 0x95, 0x48, 0xbe, 0x04, 0x47, 0x5d, 0x3e,
  0xc7, 0x72, 0x52, 0x3e, 0x20, 0x15, 0xb3, 0x3d, 0xd4, 0xb8, 0x5c, 0x3e,
  0x09, 0x3a, 0x52, 0xbe, 0x7f, 0x17, 0x13, 0xbe, 0xe2, 0x89, 0x19, 0x3e,
  0x33, 0xcd, 0x3a, 0xbd, 0x08, 0x49, 0x9d, 0xbd, 0x00, 0xed, 0x77, 0xbc,
  0x4a, 0x65, 0xe1, 0x3d, 0xc9, 0x3b, 0x06, 0xbc, 0x00, 0xd1, 0xce, 0x3d,
  0xd0, 0x51, 0x4b, 0x3d, 0xe1, 0x76, 0x2b, 0x3e, 0xf0, 0x6b, 0xcd, 0xbd,
  0x28, 0x96, 0x30, 0xbe, 0xd2, 0x36, 0x4e, 0x3e, 0x1c, 0x66, 0x7e, 0x3e,
  0xd6, 0x96, 0xdb, 0x3d, 0xd8, 0xb9, 0xcd, 0xbd, 0xee, 0x09, 0xfa, 0xbd,
  0x2d, 0x31, 0x58, 0x3d, 0x98, 0x91, 0xc9, 0x3d, 0xac, 0xab, 0x39, 0xbd,
  0xc0, 0x07, 0xc6, 0xbd, 0xfb, 0xe2, 0x0f, 0xbe, 0x90, 0xd7, 0x0a, 0x3e,
  0xc7, 0xdd, 0x67, 0xbe, 0xa4, 0x23, 0x15, 0x3e, 0x22, 0x64, 0x75, 0xbe,
  0x95, 0xc5, 0xca, 0xbc, 0x35, 0x77, 0x36, 0x3c, 0xe8, 0xe3, 0xbd, 0x3d,
  0x1c, 0x6d, 0x59, 0xbd, 0x30, 0xf2, 0x93, 0xbd, 0xa8, 0xfe, 0x83, 0xbe,
  0x70, 0x79, 0x27, 0x3e, 0x70, 0xd7, 0x32, 0x3e, 0xcf, 0x24, 0x3b, 0x3e,
  0xb4, 0xf8, 0x57, 0xbe, 0x56, 0x49, 0x82, 0xbc, 0x6b, 0x7f, 0xa6, 0xbd,
  0x10, 0x8e, 0x2b, 0x3e, 0x80, 0x60, 0x61, 0xbe, 0x42, 0x69, 0x16, 0x3e,
  0x00, 0xc1, 0xde, 0x3c, 0x4c, 0xcf, 0x13, 0x3e, 0xc0, 0x8c, 0xc8, 0xbc,
  0x00, 0x93, 0x70, 0x3e, 0xd0, 0x98, 0x00, 0x3e, 0x52, 0x9e, 0x06, 0x3d,
  0x49, 0x10, 0xa2, 0xbd, 0x2b, 0x36, 0x94, 0xbd, 0xb4, 0x12, 0x0f, 0x3e,
  0xa8, 0x1e, 0xca, 0x3d, 0xd0, 0xf4, 0xb6, 0xbd, 0xe8, 0xcb, 0xd8, 0xbd,
  0x95, 0x76, 0x80, 0x3c, 0x50, 0x15, 0x43, 0xbe, 0x92, 0x20, 0x38, 0xbe,
  0x29, 0x33, 0x75, 0xbe, 0xa0, 0xe7, 0x2c, 0xbd, 0xf8, 0x6d, 0x4a, 0xbe,
  0x60, 0xf3, 0x01, 0x3d, 0xe7, 0xd2, 0x5a, 0x3d, 0x40, 0x56, 0x49, 0x3e,
  0x68, 0x4f, 0x33, 0xbe, 0x71, 0x2b, 0xe0, 0x3b, 0x4e, 0xc5, 0x4f, 0x3c,
  0xc1, 0x16, 0x81, 0xbd, 0xfd, 0x95, 0x9f, 0xbd, 0xa7, 0x25, 0x2c, 0xbe,
  0x18, 0x53, 0xd8, 0x3d, 0x8f, 0x66, 0xe3, 0x3d, 0xad, 0x82, 0x82, 0xbe,
  0xa7, 0x3d, 0x82, 0xbe, 0x50, 0x4e, 0x70, 0xbd, 0x1d, 0x1a, 0x45, 0x3e,
  0x1c, 0xd1, 0x52, 0xbe, 0x81, 0x80, 0x8d, 0x3d, 0x26, 0xfc, 0x2e, 0x3e,
  0x3c, 0x4b, 0x44, 0xbe, 0xde, 0x30, 0x4b, 0x3c, 0x38, 0x5b, 0xa3, 0xbd,
  0x9b, 0x5c, 0x60, 0xbe, 0x6d, 0x6e, 0x6e, 0xbe, 0xbc, 0xab, 0x39, 0x3e,
  0xf8, 0x32, 0x2f, 0x3e, 0x70, 0x83, 0x80, 0x3d, 0xa7, 0xf0, 0xe1, 0x3d,
  0x76, 0xff, 0x57, 0xbd, 0xc0, 0xa4, 0x43, 0xbd, 0xea, 0xd5, 0xba, 0xbd,
  0x5d, 0xd3, 0x62, 0x3d, 0xae, 0x60, 0x52, 0xbd, 0x40, 0x23, 0x91, 0xbc,
  0x6f, 0x6a, 0x0a, 0xbe, 0xe6, 0x8e, 0x20, 0x3e, 0x80, 0x0d, 0x7e, 0x3e,
  0x09, 0xa3, 0x3a, 0x3e, 0x00, 0x48, 0xdc, 0xba, 0xe0, 0x2b, 0xaa, 0x3d,
  0x2d, 0xa1, 0x49, 0x3e, 0xd2, 0x87, 0x11, 0xbe, 0x6e, 0xcc, 0x29, 0xbe,
  0x76, 0x9e, 0x32, 0x3e, 0x40, 0x26, 0xae, 0xbc, 0x1c, 0x52, 0x08, 0xbe,
  0x3b, 0x0d, 0xeb, 0xbd, 0x88, 0x57, 0x6d, 0xbe, 0x00, 0xfb, 0xb4, 0x3b,
  0x67, 0x51, 0x0c, 0x3e, 0x48, 0xc4, 0x2f, 0x3e, 0x70, 0x22, 0x45, 0x3d,
  0xee, 0xe2, 0xaa, 0x3d, 0x56, 0xaa, 0x51, 0xbe, 0x1d, 0xa5, 0xd6, 0x3d,
  0xb0, 0xc5, 0x63, 0x3e, 0xcc, 0xd0, 0x6c, 0x3e, 0x58, 0x6a, 0x02, 0xbe,
  0x18, 0x6b, 0xdb, 0xbd, 0x71, 0x6a, 0xa3, 0x3d, 0x08, 0x8e, 0x42, 0x3e,
  0x97, 0x97, 0xd8, 0x3d, 0xac, 0x02, 0x48, 0xbe, 0xc0, 0x39, 0x40, 0xbc,
  0xf4, 0xb1, 0x5c, 0xbe, 0xc0, 0x49, 0x6a, 0xbd, 0x65, 0x72, 0xa3, 0xbc,
  0x20, 0xf8, 0x00, 0x3e, 0x50, 0x02, 0xf6, 0x3d, 0xc9, 0x7e, 0x80, 0xbe,
  0x66, 0x69, 0x13, 0x3e, 0x49, 0xb9, 0xd9, 0x3d, 0xbe, 0x26, 0xc0, 0xbd,
  0x01, 0xb0, 0x1c, 0xbe, 0xe8, 0x73, 0x2b, 0x3e, 0xad, 0x8b, 0x03, 0xbd,
  0x74, 0x6b, 0x1e, 0xbe, 0x26, 0xb4, 0x06, 0x3e, 0xa0, 0x6f, 0x40, 0x3e,
  0x45, 0xf7, 0x82, 0x3e, 0xbc, 0xd3, 0x4a, 0x3e, 0xc2, 0xb4, 0xe0, 0x3c,
  0x7f, 0xd9, 0xfe, 0x3d, 0x30, 0xa2, 0xb0, 0xbd, 0x24, 0x9c, 0x3b, 0x3e,
  0x8c, 0xe0, 0x36, 0xbe, 0x28, 0x8d, 0x9d, 0x3e, 0xa9, 0xdd, 0x47, 0x3e,
  0xb5, 0xfb, 0x26, 0x3e, 0x75, 0xfa, 0x2a, 0x3e, 0xb8, 0x9a, 0x5a, 0x3e,
  0x92, 0xff, 0xf2, 0xbd, 0x0b, 0xe1, 0x9c, 0xb8, 0xea, 0xdb, 0xbe, 0xbd,
  0x92, 0x92, 0x82, 0xbd, 0x76, 0x98, 0x21, 0xbd, 0x15, 0xbf, 0x69, 0x3e,
  0xef, 0xf3, 0x0b, 0x3e, 0x19, 0x15, 0x2e, 0x3e, 0x98, 0xef, 0x1d, 0x3e,
  0x54, 0x19, 0x29, 0x3e, 0x8e, 0x26, 0x45, 0xbe, 0x90, 0x3c, 0x5a, 0x3d,
  0x00, 0x00, 0xc7, 0x37, 0x3e, 0x2a, 0xcf, 0x3d, 0x90, 0x33, 0x22, 0x3d,
  0xf8, 0xd4, 0x87, 0xbd, 0x30, 0x06, 0x7b, 0x3d, 0x88, 0x85, 0xb1, 0xbd,
  0xf8, 0xef, 0x3a, 0xbe, 0xe9, 0x52, 0x16, 0x3e, 0xd0, 0x4a, 0x3a, 0x3d,
  0x74, 0x0d, 0x5a, 0xbe, 0x74, 0x2f, 0x10, 0x3e, 0x68, 0xd2, 0x15, 0x3e,
  0x54, 0xf1, 0x7e, 0x3e, 0xdf, 0x11, 0x2f, 0xbd, 0x8f, 0x00, 0xa6, 0x3e,
  0xbb, 0xca, 0x3e, 0xbe, 0x6c, 0x5e, 0x31, 0x3e, 0x60, 0x20, 0xa8, 0xbc,
  0xc0, 0xcd, 0x1b, 0x3c, 0x54, 0x3e, 0x24, 0xbe, 0xc9, 0xdb, 0xd6, 0xbd,
  0x08, 0x22, 0x4e, 0x3e, 0xbd, 0x1e, 0x74, 0x3e, 0xc5, 0xb8, 0x21, 0xbe,
  0x38, 0x3d, 0xf7, 0x3d, 0xa8, 0xd6, 0x67, 0xbe, 0xdc, 0xc6, 0x1b, 0x3e,
  0x86, 0x46, 0x28, 0x3d, 0x70, 0x53, 0x1a, 0xbe, 0x88, 0x3b, 0x66, 0xbe,
  0x4a, 0x98, 0x28, 0xbe, 0xfb, 0x34, 0x90, 0x3e, 0x12, 0xb0, 0xb7, 0x3d,
  0xd0, 0xd4, 0xbc, 0x3d, 0x28, 0x95, 0x6f, 0x3e, 0x80, 0xc3, 0xa9, 0xbd,
  0xc8, 0x27, 0xbd, 0x3d, 0xd8, 0x70, 0x3c, 0x3e, 0x00, 0x3f, 0x63, 0xbd,
  0xa0, 0xf2, 0xa3, 0xbc, 0xe0, 0x38, 0x1d, 0x3d, 0x98, 0x90, 0x62, 0xbe,
  0x60, 0x93, 0x55, 0x3d, 0x40, 0x56, 0x49, 0xbc, 0x90, 0xe6, 0x0c, 0xbe,
  0x98, 0xed, 0xfc, 0x3d, 0xa8, 0x98, 0x2f, 0x3e, 0xc0, 0xdd, 0x45, 0xbe,
  0x88, 0x5d, 0xfc, 0x3d, 0xd8, 0x9a, 0x9e, 0xbd, 0x40, 0x40, 0xf0, 0xbd,
  0x10, 0x7e, 0x61, 0x3d, 0x00, 0x56, 0x89, 0xbb, 0x1c, 0x3c, 0x34, 0x3e,
  0xb0, 0x2e, 0xec, 0xbd, 0x90, 0xc5, 0x85, 0x3d, 0x50, 0x63, 0x17, 0xbd,
  0xd0, 0xff, 0xe8, 0xbd, 0xc0, 0x96, 0x33, 0x3c, 0x90, 0xd5, 0x0d, 0x3d,
  0x28, 0x38, 0x9e, 0x3d, 0xf0, 0x3f, 0x0f, 0xbd, 0x54, 0xe9, 0x1e, 0xbe,
  0x00, 0x3f, 0xf5, 0xbc, 0xe8, 0x68, 0x9a, 0xbd, 0x48, 0xe7, 0x5b, 0x3e,
  0x08, 0x00, 0x0a, 0x3e, 0x80, 0x49, 0xd5, 0xbc, 0xa0, 0x4f, 0xb8, 0x3c,
  0x48, 0xd7, 0xc5, 0xbd, 0x90, 0xa6, 0x8d, 0xbd, 0xa4, 0x64, 0x41, 0x3e,
  0x7c, 0x29, 0x18, 0x3e, 0xa8, 0x0e, 0xcc, 0x3d, 0x20, 0x76, 0xee, 0x3c,
  0xc8, 0x26, 0xb6, 0xbd, 0x98, 0x43, 0x2f, 0x3e, 0x98, 0xfe, 0x6e, 0xbe,
  0x9c, 0xda, 0x2c, 0xbe, 0x4c, 0xaa, 0x7e, 0xbe, 0xb8, 0x8d, 0xd1, 0xbd,
  0x80, 0x1f, 0x2f, 0xbd, 0x00, 0xea, 0xe8, 0x3a, 0x60, 0x7c, 0xea, 0xbd,
  0x30, 0x48, 0x1b, 0xbe, 0x48, 0x48, 0x45, 0xbe, 0x30, 0xf3, 0xd8, 0xbd,
  0xd0, 0x5a, 0x3f, 0x3d, 0x60, 0xce, 0xf0, 0x3d, 0x40, 0x75, 0xcb, 0x3d,
  0x94, 0x5e, 0x3f, 0x3e, 0xfc, 0xc0, 0x19, 0xbe, 0x70, 0xd0, 0x7f, 0xbe,
  0xe0, 0xcf, 0x79, 0x3d, 0xc0, 0xa7, 0x05, 0x3e, 0x70, 0xc2, 0x63, 0xbe,
  0xc8, 0x32, 0x9e, 0xbd, 0x7c, 0xcc, 0x38, 0x3e, 0x90, 0x0e, 0xd7, 0x3d,
  0xd8, 0x90, 0x68, 0x3e, 0x9c, 0x66, 0x55, 0xbe, 0x20, 0xd5, 0x4b, 0xbe,
  0x98, 0xba, 0x5b, 0xbe, 0xf8, 0x73, 0x22, 0xbe, 0xb8, 0x50, 0x40, 0xbe,
  0xb4, 0x85, 0x25, 0xbe, 0x20, 0x72, 0xda, 0xbc, 0x48, 0x78, 0x11, 0xbe,
  0x20, 0x2c, 0xd4, 0xbd, 0xe8, 0x29, 0x8c, 0xbd, 0x84, 0x40, 0x3f, 0x3e,
  0x90, 0xe7, 0x46, 0x3d, 0xfc, 0x8f, 0x61, 0xbe, 0xbc, 0x12, 0x65, 0xbe,
  0x0c, 0xee, 0x7e, 0xbe, 0x08, 0x5e, 0x4d, 0x3e, 0xf4, 0x72, 0x66, 0x3e,
  0x24, 0xf3, 0x23, 0xbe, 0xd0, 0x44, 0x2b, 0xbe, 0x08, 0xbd, 0x41, 0x3e,
  0x40, 0xca, 0x7e, 0x3d, 0x90, 0x31, 0x19, 0x3d, 0xc0, 0x0c, 0xf3, 0x3d,
  0x20, 0x72, 0xf3, 0xbd, 0xc0, 0x7f, 0x1b, 0x3e, 0x1c, 0xf0, 0x2d, 0xbe,
  0xa8, 0x72, 0x24, 0x3e, 0x70, 0x6c, 0xf8, 0xbd, 0x74, 0xcb, 0x61, 0xbe,
  0xc0, 0xe6, 0x84, 0x3c, 0xb0, 0xc5, 0x15, 0xbe, 0xe8, 0xcd, 0xf1, 0x3d,
  0x98, 0x43, 0xc0, 0x3d, 0x88, 0x4c, 0x69, 0xbe, 0xac, 0x85, 0x67, 0x3e,
  0xf8, 0x95, 0xfe, 0x3d, 0xd8, 0xc0, 0xf3, 0xbd, 0x50, 0xf3, 0xc2, 0xbd,
  0x28, 0x97, 0x9b, 0x3d, 0x94, 0x8b, 0x27, 0x3e, 0x80, 0x54, 0xa2, 0xbb,
  0x30, 0xff, 0xf5, 0x3d, 0x20, 0xa9, 0xd5, 0x3d, 0x80, 0x3e, 0x98, 0xbc,
  0x00, 0x90, 0x69, 0xba, 0x54, 0x77, 0x6a, 0xbe, 0x78, 0x4d, 0x30, 0xbe,
  0x8c, 0xed, 0x2b, 0x3e, 0x50, 0x89, 0x47, 0x3d, 0xf4, 0xca, 0x10, 0xbe,
  0x5c, 0x4a, 0x0f, 0xbe, 0xe0, 0x42, 0x58, 0x3e, 0xa8, 0xb1, 0x9e, 0x3d,
  0xe4, 0xa5, 0x1e, 0xbe, 0x00, 0x00, 0x31, 0xb9, 0x00, 0x1b, 0xc0, 0x3c,
  0xc0, 0xa2, 0x28, 0xbc, 0xa8, 0xff, 0xda, 0xbd, 0x04, 0x17, 0x2d, 0x3e,
  0x78, 0x5f, 0x0f, 0xbe, 0x04, 0x48, 0x7e, 0xbe, 0x50, 0x03, 0x84, 0x3d,
  0x12, 0xfb, 0x4e, 0x3e, 0x10, 0xa9, 0x4c, 0xbe, 0x72, 0x8a, 0xee, 0x3d,
  0xea, 0xb8, 0x6a, 0xbe, 0x5c, 0x4d, 0x1a, 0x3d, 0xa8, 0x8c, 0x99, 0x3d,
  0x5c, 0xd5, 0xfb, 0x3d, 0xec, 0x51, 0x4d, 0x3e, 0xf0, 0x40, 0x1d, 0x3d,
  0x99, 0xbd, 0x68, 0xbe, 0xa0, 0xfa, 0xd0, 0x3c, 0x1d, 0x06, 0x82, 0xbe,
  0xd8, 0xab, 0xe5, 0x3d, 0x3d, 0x0c, 0x56, 0x3e, 0x46, 0x85, 0x45, 0xbe,
  0x5c, 0xfe, 0x8b, 0xbd, 0x9e, 0x78, 0x3d, 0x3e, 0x80, 0xf4, 0xbc, 0x3b,
  0xc4, 0xaa, 0x1c, 0x3e, 0x6f, 0x9e, 0xfe, 0x3d, 0x90, 0xb1, 0x2e, 0x3e,
  0x78, 0xdf, 0x03, 0x3e, 0x2d, 0xe3, 0x66, 0x3d, 0xe1, 0x9f, 0x7b, 0xbe,
  0xc2, 0xcd, 0x64, 0x3e, 0x7a, 0xe8, 0x08, 0x3e, 0x36, 0x9f, 0xd8, 0xbd,
  0xb8, 0x3c, 0x9b, 0x3d, 0xb9, 0x9d, 0x01, 0xbe, 0xa4, 0x43, 0x52, 0xbe,
  0x80, 0x66, 0xb0, 0x3c, 0xf2, 0xa1, 0x22, 0x3d, 0x50, 0x96, 0x2b, 0xbd,
  0x1c, 0xc6, 0xb9, 0x3d, 0x60, 0x4e, 0x06, 0xbe, 0xa0, 0xe6, 0x06, 0x3d,
  0x98, 0xbb, 0xe1, 0x3d, 0xd8, 0x27, 0x70, 0xbe, 0xe0, 0x32, 0xda, 0x3c,
  0x44, 0xe3, 0x42, 0xbe, 0xc3, 0xf2, 0xc5, 0xbd, 0x1c, 0x61, 0x7a, 0xbe,
  0x40, 0x38, 0x42, 0x3e, 0xc5, 0x0b, 0x64, 0xbe, 0xeb, 0x15, 0x39, 0xbe,
  0x2c, 0x49, 0x6a, 0xbe, 0xc0, 0xf5, 0x43, 0xbd, 0xd8, 0xa1, 0x81, 0xbd,
  0x34, 0x3b, 0x02, 0xbe, 0xb8, 0x2b, 0x39, 0x3e, 0x84, 0xc0, 0xc4, 0xbc,
  0xac, 0x34, 0x3f, 0xbe, 0x41, 0xe5, 0x43, 0xbe, 0x59, 0xef, 0x31, 0xbe,
  0xe0, 0xf8, 0xc9, 0xbd, 0xc0, 0xee, 0xe3, 0x3c, 0x30, 0xed, 0x2d, 0x3d,
  0x7d, 0x22, 0x28, 0xbe, 0x60, 0xb8, 0x3a, 0x3d, 0x54, 0x1f, 0x04, 0xbe,
  0x6b, 0xfd, 0xae, 0x3d, 0x10, 0xb8, 0x41, 0x3e, 0x0c, 0x3f, 0x83, 0x3d,
  0xf6, 0x2d, 0x02, 0xbe, 0x30, 0x1f, 0xb9, 0x3e, 0x88, 0x00, 0xc7, 0x3d,
  0xd0, 0x3f, 0x01, 0xbe, 0xb4, 0x16, 0x77, 0x3e, 0x8f, 0x0b, 0x85, 0x3e,
  0x44, 0x52, 0x0e, 0x3e, 0xa6, 0x49, 0x1d, 0x3e, 0xb4, 0xa9, 0x6a, 0x3e,
  0xda, 0x31, 0x68, 0x3d, 0x99, 0x49, 0xb6, 0x3e, 0xd0, 0x10, 0xf6, 0xbd,
  0x0f, 0x24, 0xce, 0x3d, 0xf0, 0x85, 0x82, 0xbd, 0xdb, 0xe2, 0x00, 0x3e,
  0x62, 0xfb, 0xd8, 0x3d, 0x37, 0xd5, 0xf7, 0x3d, 0xfc, 0x6f, 0xf5, 0xbd,
  0x30, 0xe9, 0x0b, 0x3e, 0x44, 0x69, 0x16, 0x3d, 0xe3, 0x55, 0x72, 0x3e,
  0xb5, 0x3d, 0xd0, 0xbd, 0xee, 0x5f, 0xa8, 0x3d, 0xea, 0x1b, 0x0f, 0xbe,
  0x23, 0x59, 0xa7, 0x3e, 0x3f, 0xc5, 0x02, 0x3e, 0x05, 0x71, 0xd1, 0x3d,
  0x0f, 0x62, 0x1e, 0x3e, 0x80, 0x60, 0x82, 0xbc, 0x86, 0xb3, 0xd9, 0x3d,
  0xb0, 0xde, 0x9e, 0x3d, 0x18, 0x02, 0x53, 0xbe, 0x1e, 0x40, 0x3d, 0xbd,
  0x42, 0x41, 0x18, 0x3d, 0xf5, 0x0f, 0x7b, 0x3e, 0xa1, 0xca, 0x02, 0x3e,
  0x40, 0xb6, 0x96, 0x3c, 0x64, 0xe3, 0x68, 0x3e, 0x03, 0x38, 0xb1, 0x3d,
  0x00, 0x0d, 0x33, 0xbe, 0x60, 0x9b, 0xb5, 0x3d, 0x22, 0x80, 0x7c, 0xbc,
  0x20, 0x76, 0x36, 0xbd, 0xe0, 0x6a, 0x76, 0x3e, 0x78, 0xae, 0x78, 0x3e,
  0xb8, 0xa0, 0x15, 0x3e, 0x6e, 0xcb, 0xd7, 0xbd, 0x38, 0xc6, 0x84, 0x3d,
  0x3c, 0x7f, 0x31, 0xbe, 0xa0, 0x34, 0x03, 0x3d, 0x48, 0xf4, 0x6d, 0xbe,
  0xab, 0x00, 0xb1, 0x3e, 0x30, 0x1e, 0x54, 0xbd, 0x4b, 0x31, 0x9f, 0x3e,
  0x59, 0x23, 0x99, 0x3e, 0x90, 0x9d, 0xd7, 0x3d, 0x90, 0xda, 0x6b, 0x3d,
  0x50, 0xf5, 0x15, 0x3d, 0x37, 0x4d, 0x37, 0x3e, 0x0c, 0x9a, 0x27, 0xbe,
  0x00, 0x64, 0xb0, 0x3d, 0xf3, 0x8c, 0x63, 0x3d, 0x6c, 0x00, 0x51, 0x3e,
  0xf9, 0x84, 0xa7, 0x3e, 0x26, 0xba, 0x28, 0x3e, 0xc6, 0x35, 0x72, 0xbe,
  0xb8, 0x9d, 0xf5, 0xbd, 0x06, 0xd2, 0x2b, 0xbe, 0x5d, 0x3c, 0xc0, 0xbd,
  0xce, 0x2e, 0x50, 0x3c, 0xb0, 0x77, 0x2b, 0x3e, 0x93, 0xda, 0x60, 0x3e,
  0x7c, 0x2c, 0x5f, 0x3e, 0xbb, 0x5a, 0xaa, 0x3d, 0x58, 0x67, 0x75, 0x3d,
  0xf0, 0x30, 0x76, 0x3d, 0x55, 0xe6, 0x68, 0xbe, 0x48, 0x2e, 0x77, 0x3e,
  0x1c, 0xa1, 0x45, 0x3e, 0x88, 0xe1, 0x19, 0x3e, 0x78, 0x08, 0x38, 0x3d,
  0x78, 0xd3, 0xde, 0xbd, 0x40, 0x65, 0xb7, 0xbc, 0xb8, 0xdd, 0xde, 0xbd,
  0x4d, 0x1b, 0xc4, 0xbd, 0x76, 0x42, 0x93, 0x3b, 0xbd, 0xc6, 0x58, 0xbe,
  0xc4, 0x6b, 0x49, 0x3e, 0x8e, 0x6e, 0xcc, 0xbd, 0x9b, 0x5c, 0x37, 0x3d,
  0xdd, 0x9e, 0x34, 0xbe, 0x3c, 0x09, 0x4a, 0xbe, 0xa0, 0xbb, 0x6e, 0xbd,
  0xe0, 0xbe, 0x46, 0xbe, 0x38, 0xb4, 0x1e, 0x3e, 0x48, 0xb6, 0x29, 0xbe,
  0xe5, 0x8c, 0xef, 0xbc, 0x63, 0x3d, 0xb9, 0xbd, 0xfa, 0xef, 0x8b, 0xbe,
  0x2e, 0xd2, 0xc5, 0x3d, 0x48, 0x98, 0x64, 0x3e, 0x08, 0xf7, 0x0c, 0xbe,
  0x6d, 0x4d, 0x26, 0x3d, 0xf8, 0x59, 0x30, 0x3e, 0x4c, 0x0f, 0x63, 0xbe,
  0x7a, 0xb7, 0x44, 0x3d, 0x40, 0x55, 0xb6, 0xbd, 0xdc, 0x27, 0x28, 0x3e,
  0x5d, 0x36, 0x36, 0xbd, 0xd7, 0xe7, 0x56, 0x39, 0x28, 0x2f, 0x44, 0xbd,
  0x68, 0x6a, 0x18, 0x3e, 0x88, 0x7b, 0xcc, 0xbd, 0xf8, 0x5d, 0xe7, 0x3d,
  0xa8, 0x78, 0xd0, 0x3d, 0x64, 0x72, 0x04, 0xbe, 0xb8, 0x72, 0x2a, 0x3e,
  0xa9, 0xd8, 0x3d, 0x3e, 0x4e, 0x6b, 0xde, 0x3c, 0x24, 0x48, 0x44, 0xbe,
  0x04, 0x1c, 0x1a, 0x3e, 0x28, 0x7b, 0x95, 0xbd, 0x94, 0xd6, 0x21, 0x3e,
  0x40, 0x04, 0x1f, 0xbc, 0x88, 0x5d, 0x6d, 0xbe, 0x73, 0xb9, 0x51, 0xbd,
  0x08, 0x61, 0x66, 0xbe, 0x1a, 0xc8, 0xcb, 0x3c, 0x21, 0x13, 0x88, 0xbd,
  0x03, 0x66, 0xd4, 0x3d, 0x88, 0xff, 0xda, 0xbd, 0xb1, 0xf9, 0xbf, 0x3d,
  0xa7, 0x13, 0xc6, 0x3e, 0x9e, 0x40, 0x9c, 0xbd, 0x90, 0xe3, 0x25, 0x3d,
  0x02, 0x3e, 0x6b, 0x3e, 0xf0, 0x0d, 0x58, 0xbd, 0xb2, 0x54, 0x64, 0x3e,
  0xf7, 0x68, 0x9f, 0x3c, 0x70, 0xe3, 0x5c, 0xbe, 0xb2, 0xec, 0xb8, 0x3e,
  0xdc, 0xfe, 0x41, 0x3e, 0x13, 0x35, 0xbf, 0x3e, 0xcd, 0x4a, 0x2f, 0x3d,
  0x6f, 0x8d, 0xef, 0x3d, 0x1d, 0xa2, 0xa8, 0x3d, 0xb0, 0x20, 0x9e, 0xbd,
  0x10, 0x42, 0xb0, 0x3d, 0x19, 0x24, 0xe5, 0x3d, 0x10, 0xb2, 0xb2, 0xbd,
  0x46, 0xfe, 0xb5, 0x3e, 0xb7, 0xff, 0x48, 0xbd, 0x1e, 0xd2, 0xbc, 0x3d,
  0x12, 0x1a, 0xa6, 0x3e, 0x06, 0xc4, 0xc2, 0xbd, 0xca, 0xae, 0x88, 0x3e,
  0x10, 0x65, 0xbf, 0xbd, 0x87, 0xc2, 0x32, 0x3e, 0x74, 0xc2, 0x4e, 0xbe,
  0x2c, 0xea, 0x23, 0x3e, 0x9e, 0x87, 0x87, 0xbd, 0xe9, 0xd3, 0x21, 0x3d,
  0xef, 0x4b, 0xa6, 0xbd, 0xf3, 0xf2, 0xa3, 0x3e, 0x80, 0x91, 0xe9, 0x3b,
  0x50, 0xac, 0x73, 0x3d, 0x20, 0xba, 0xd1, 0xbd, 0x00, 0x25, 0xd1, 0xbc,
  0x70, 0x74, 0xdb, 0x3d, 0x08, 0xd2, 0x4e, 0x3e, 0x8c, 0x0f, 0x17, 0xbe,
  0x5c, 0x25, 0x3d, 0x3e, 0xc0, 0x9e, 0x89, 0x3e, 0x06, 0x5a, 0xdb, 0x3d,
  0xe5, 0x20, 0x4c, 0x3e, 0x2c, 0xc6, 0x79, 0xbe, 0xac, 0x4f, 0x39, 0xbe,
  0xd0, 0xf2, 0x5a, 0xbe, 0x80, 0x4a, 0x3c, 0x3c, 0xc9, 0xf7, 0x8b, 0x3e,
  0x70, 0x53, 0x27, 0x3d, 0xaf, 0x40, 0x24, 0x3e, 0x93, 0xd4, 0x94, 0xbd,
  0xb8, 0xcb, 0x38, 0x3e, 0xc8, 0x83, 0x91, 0xbd, 0x48, 0xe6, 0xc2, 0x3d,
  0x81, 0xca, 0x95, 0xbd, 0xa8, 0x92, 0xc4, 0xbd, 0x74, 0xe5, 0x47, 0x3e,
  0x25, 0xc1, 0xbc, 0xbd, 0x60, 0xd2, 0xce, 0x3e, 0x63, 0xe5, 0x48, 0x3e,
  0xb1, 0x73, 0xfa, 0x3d, 0x24, 0x7d, 0x11, 0xbe, 0xbc, 0xac, 0x05, 0x3e,
  0x7d, 0x67, 0x58, 0xbe, 0x2b, 0x47, 0x90, 0x3b, 0x26, 0x6e, 0x45, 0xbe,
  0x80, 0xe3, 0xf3, 0xbd, 0x7e, 0x01, 0x52, 0x3d, 0xc0, 0x21, 0x61, 0xbe,
  0xd6, 0x71, 0xa1, 0xbd, 0xb5, 0xd6, 0xf5, 0x3d, 0xc8, 0xec, 0x7f, 0x3e,
  0xb7, 0xa8, 0xc9, 0xbc, 0xe4, 0xb7, 0x36, 0xbe, 0x7c, 0x76, 0x2e, 0x3e,
  0x32, 0xd1, 0xde, 0xbd, 0xb1, 0x06, 0x05, 0x3e, 0x34, 0x62, 0x36, 0x3e,
  0xa0, 0x4c, 0x9c, 0x3d, 0xd6, 0xe7, 0x49, 0xbd, 0xf5, 0xb7, 0x68, 0x3c,
  0x97, 0xce, 0x18, 0x3e, 0x3e, 0xb2, 0xfb, 0xbd, 0x43, 0x56, 0x20, 0x3e,
  0x0c, 0xee, 0x95, 0x3d, 0xad, 0x73, 0x8c, 0xbe, 0x1c, 0x03, 0xfd, 0xbb,
  0xd8, 0x9b, 0x5a, 0x3d, 0x80, 0x41, 0xa6, 0x3c, 0x18, 0x45, 0x36, 0x3e,
  0xa0, 0x84, 0x40, 0x3d, 0x38, 0xab, 0x17, 0x3e, 0x5a, 0x26, 0xb9, 0x3d,
  0xb6, 0x9e, 0x38, 0x3d, 0x76, 0x65, 0x98, 0xbe, 0xfa, 0xb8, 0x57, 0x3d,
  0x78, 0x81, 0x14, 0x3e, 0x30, 0x8b, 0xf7, 0x3d, 0xc8, 0x7c, 0x48, 0x3d,
  0x94, 0x49, 0x3f, 0xbe, 0xc8, 0x1d, 0xf9, 0x3d, 0x7f, 0xd8, 0x5c, 0x3e,
  0xe0, 0xce, 0x81, 0xbd, 0x28, 0x18, 0xb8, 0x3d, 0x3c, 0x51, 0x96, 0xbe,
  0x46, 0x39, 0x30, 0x3e, 0x8b, 0x0f, 0x54, 0xbe, 0xc0, 0x76, 0x17, 0xbe,
  0x78, 0xdd, 0x01, 0x3e, 0x98, 0x14, 0x5f, 0x3e, 0xa8, 0x1d, 0x77, 0x3e,
  0x4b, 0x00, 0x33, 0x3d, 0x70, 0x79, 0xba, 0xbd, 0xbe, 0x20, 0xfc, 0xbd,
  0x9a, 0x6f, 0x19, 0xbe, 0xa4, 0x05, 0x6f, 0xbe, 0x50, 0xde, 0x58, 0xbd,
  0x6c, 0x2f, 0x7c, 0x3e, 0x44, 0x2b, 0xf2, 0xbd, 0x94, 0x54, 0x1b, 0xbe,
  0x28, 0x13, 0xd7, 0x3d, 0x26, 0xd2, 0x1e, 0xbd, 0x61, 0x9b, 0x35, 0xbe,
  0x62, 0x89, 0xab, 0xbd, 0xdc, 0x67, 0x64, 0x3e, 0x68, 0xce, 0x97, 0x3d,
  0x78, 0x45, 0x29, 0xbe, 0xa0, 0xc2, 0xda, 0x3c, 0x20, 0xe8, 0x03, 0xbe,
  0x10, 0x6a, 0xcb, 0x3d, 0x08, 0x06, 0x2c, 0xbe, 0x5c, 0xaf, 0x50, 0xbe,
  0x40, 0x63, 0xc0, 0x3d, 0x98, 0x97, 0xeb, 0xbd, 0xec, 0x41, 0x19, 0x3e,
  0xe0, 0x8d, 0x4b, 0x3e, 0x28, 0xcb, 0xd7, 0xbd, 0x80, 0xf5, 0x5a, 0x3d,
  0xac, 0xff, 0x45, 0x3e, 0xac, 0x93, 0x4c, 0xbe, 0xd8, 0xf7, 0xe0, 0x3d,
  0xfc, 0xb3, 0x5b, 0xbe, 0x48, 0xef, 0x96, 0xbd, 0x80, 0x07, 0x62, 0x3c,
  0x00, 0xc4, 0x1a, 0xbb, 0x00, 0xba, 0x0c, 0xbb, 0xd0, 0x26, 0x6a, 0x3e,
  0x94, 0xbe, 0x27, 0xbe, 0x50, 0x40, 0x67, 0xbe, 0x80, 0x98, 0x91, 0xbd,
  0xc0, 0xeb, 0x1e, 0xbe, 0x18, 0x58, 0x7e, 0x3e, 0x18, 0x81, 0xaa, 0x3d,
  0x98, 0x10, 0x36, 0xbe, 0xc0, 0x1f, 0x82, 0x3c, 0x40, 0x8b, 0x1a, 0xbc,
  0x60, 0x42, 0x5b, 0xbe, 0x80, 0xc3, 0xcb, 0xbd, 0xc0, 0xd8, 0x3c, 0xbc,
  0x28, 0xc5, 0x19, 0x3e, 0x8c, 0x24, 0x02, 0xbe, 0x80, 0x6b, 0xa9, 0xbc,
  0x00, 0xe0, 0x6c, 0x3c, 0x20, 0x36, 0x52, 0xbd, 0x08, 0xcd, 0xe2, 0xbd,
  0xac, 0xdd, 0x0d, 0x3e, 0xc0, 0x67, 0x9c, 0x3c, 0x98, 0x33, 0xf1, 0xbd,
  0xc0, 0x5b, 0xdd, 0x3d, 0x20, 0x02, 0x9f, 0x3c, 0x80, 0xc7, 0xe5, 0x3b,
  0x00, 0xb1, 0x4f, 0xbd, 0xec, 0x40, 0x6c, 0xbe, 0xd4, 0x50, 0x57, 0x3e,
  0x38, 0xc2, 0x2c, 0x3e, 0xf8, 0xe6, 0x12, 0xbe, 0x40, 0x7a, 0xcf, 0xbd,
  0xc0, 0xfa, 0x76, 0x3c, 0x00, 0x58, 0x2f, 0x3d, 0xcc, 0xfa, 0x16, 0x3e,
  0xd8, 0x7f, 0x7e, 0x3e, 0x30, 0xc4, 0x43, 0xbd, 0xa4, 0x05, 0x18, 0xbe,
  0xd0, 0x05, 0x9c, 0x3d, 0x30, 0xdf, 0x4a, 0xbd, 0x0c, 0x50, 0x23, 0xbe,
  0x94, 0x90, 0x79, 0xbe, 0xc0, 0xf6, 0x87, 0xbd, 0x0b, 0x2c, 0xf6, 0xbd,
  0xcb, 0x76, 0x4d, 0x3e, 0x78, 0x33, 0x32, 0xbe, 0x86, 0x3f, 0xa2, 0xbd,
  0x60, 0xd0, 0x60, 0x3e, 0xec, 0x20, 0x9a, 0x3e, 0xb0, 0x08, 0x7b, 0xbe,
  0xd1, 0xcc, 0xb7, 0x3e, 0xe0, 0x34, 0x24, 0x3d, 0x3f, 0x8c, 0xaa, 0x3e,
  0xf6, 0x4b, 0x8f, 0x3e, 0xc8, 0xbe, 0xa8, 0xbd, 0x10, 0xf3, 0xff, 0x3d,
  0x90, 0x32, 0x73, 0xbd, 0x20, 0xf3, 0x5b, 0x3c, 0xad, 0x16, 0x27, 0x3d,
  0x91, 0xfc, 0x43, 0x3e, 0x01, 0x82, 0x18, 0x3e, 0x10, 0x58, 0x61, 0x3d,
  0xfe, 0xb3, 0xa9, 0x3e, 0xfe, 0x07, 0x9b, 0x3e, 0x96, 0x77, 0x0c, 0xbe,
  0x7c, 0xb1, 0xab, 0x3e, 0x73, 0x94, 0x25, 0xbe, 0x66, 0x2e, 0x80, 0xbc,
  0xaf, 0xe3, 0xad, 0x3e, 0x6b, 0xd9, 0x71, 0x3e, 0x71, 0xc8, 0x84, 0x3d,
  0xac, 0x7f, 0x49, 0x3e, 0xdd, 0x7b, 0xb1, 0x3d, 0x88, 0x01, 0x13, 0xbe,
  0xb8, 0xbf, 0x90, 0xbd, 0xe5, 0x19, 0x4f, 0x3e, 0x88, 0x5c, 0x6a, 0x3e,
  0x8b, 0x60, 0xcd, 0x3d, 0xef, 0xaa, 0xa9, 0x3e, 0xe0, 0xd7, 0xa0, 0x3d,
  0x9c, 0x34, 0x5e, 0x3e, 0xb4, 0xe7, 0xac, 0x3e, 0x80, 0x8d, 0x93, 0xbc,
  0x90, 0xc0, 0x4e, 0xbe, 0x54, 0xf0, 0x73, 0x3e, 0x60, 0x38, 0xbf, 0x3d,
  0x64, 0xfa, 0x56, 0xbe, 0xfb, 0x98, 0x1a, 0x3e, 0x7c, 0x25, 0xd4, 0x3e,
  0x63, 0xbe, 0x74, 0x3c, 0xb0, 0x2d, 0x2c, 0x3e, 0xa0, 0x16, 0xcc, 0xbc,
  0x3c, 0x84, 0x76, 0xbe, 0x40, 0x26, 0x87, 0xbc, 0x59, 0xc8, 0xb8, 0x3d,
  0x7c, 0xbf, 0x6f, 0x3e, 0x04, 0x22, 0xec, 0x3d, 0x96, 0xc2, 0xc3, 0xbd,
  0xd0, 0xdb, 0x88, 0xbd, 0xb8, 0xfa, 0xcc, 0xbd, 0x38, 0x01, 0x56, 0x3e,
  0x12, 0xce, 0x65, 0x3e, 0x80, 0x4e, 0x76, 0x3e, 0x00, 0xe2, 0x22, 0x3c,
  0x86, 0x90, 0x92, 0xbd, 0xd0, 0x0e, 0x7a, 0x3e, 0xc9, 0x2b, 0x28, 0x3d,
  0xd6, 0xfb, 0xff, 0xff, 0x04, 0x00, 0x00, 0x00, 0x00, 0x03, 0x00, 0x00,
  0x90, 0xfe, 0x4e, 0xbe, 0x68, 0x22, 0x22, 0x3e, 0x53, 0x2e, 0xf9, 0x3d,
  0x9d, 0x55, 0x49, 0xbd, 0x14, 0x0c, 0x3a, 0x3e, 0xb6, 0x0a, 0x96, 0x3e,
  0x3e, 0x07, 0x86, 0xbe, 0x26, 0x81, 0x93, 0xbe, 0xdb, 0x4e, 0x84, 0xbe,
  0x61, 0x8c, 0x22, 0xbd, 0xd3, 0x1a, 0x81, 0x3e, 0x23, 0x35, 0xa3, 0x3e,
  0x21, 0x4e, 0x53, 0x3e, 0x2c, 0xf6, 0x1b, 0xbe, 0xfc, 0xff, 0xbe, 0x3e,
  0x0e, 0x65, 0xee, 0xbc, 0xb5, 0xb8, 0xb7, 0x3e, 0xd4, 0x7a, 0x25, 0x3e,
  0x38, 0x34, 0xd7, 0xbd, 0x15, 0x0b, 0x1d, 0xbe, 0xbc, 0x9b, 0x58, 0xbe,
  0xe6, 0x08, 0xdb, 0x3e, 0x9c, 0x5d, 0xcb, 0x3e, 0xba, 0x67, 0xb4, 0xbd,
  0x0d, 0x5c, 0x1f, 0xbe, 0x8f, 0xc9, 0x74, 0xbe, 0x05, 0x5d, 0x30, 0xbe,
  0x09, 0x48, 0x8e, 0xbc, 0x5d, 0x5b, 0x2b, 0xbe, 0x78, 0x4e, 0x96, 0x3e,
  0xe8, 0xaa, 0x57, 0x3d, 0xb2, 0xb6, 0x28, 0x3d, 0x28, 0x6c, 0x80, 0x3e,
  0x00, 0x1c, 0x9e, 0x3d, 0x82, 0xb4, 0x94, 0xbd, 0x00, 0x74, 0x60, 0xbb,
  0x7e, 0xc7, 0xe2, 0x3e, 0xe5, 0xa4, 0xf6, 0xbc, 0x0e, 0xea, 0xa7, 0x3e,
  0x48, 0x53, 0x3d, 0xbd, 0xcc, 0xad, 0xf3, 0x3d, 0xd6, 0x73, 0xf2, 0xbd,
  0xb6, 0x85, 0xab, 0x3e, 0x79, 0x85, 0xbe, 0x3e, 0xcf, 0xfe, 0x9f, 0x3e,
  0x0f, 0x54, 0xe3, 0x3d, 0xc3, 0x72, 0xa2, 0x3e, 0xd2, 0xbf, 0xa6, 0x3e,
  0xb6, 0x8d, 0x7f, 0x3e, 0x0d, 0xf5, 0x94, 0x3d, 0x60, 0x63, 0x86, 0x3e,
  0x03, 0xd6, 0x3a, 0x3d, 0x5b, 0x06, 0xb5, 0x3e, 0x54, 0x25, 0xa4, 0x3e,
  0xbd, 0x2b, 0x92, 0xbe, 0x1c, 0x4a, 0x73, 0x3e, 0xd8, 0x24, 0x71, 0xbe,
  0x81, 0x49, 0x62, 0x3e, 0xd4, 0xa5, 0x09, 0x3e, 0x76, 0xa2, 0xda, 0x3d,
  0x79, 0x04, 0x80, 0x3e, 0x6f, 0x4a, 0xd8, 0x3d, 0x19, 0x80, 0xab, 0x3e,
  0x4d, 0xb0, 0x64, 0xbe, 0xe2, 0x65, 0xdd, 0x3d, 0xf3, 0xb3, 0x1d, 0x3e,
  0x36, 0x83, 0xce, 0x3e, 0xf8, 0x57, 0xbc, 0xbd, 0x8a, 0xf1, 0x4d, 0x3e,
  0x19, 0x8f, 0xa7, 0xbe, 0x28, 0x8a, 0x3a, 0xbe, 0xbc, 0x2f, 0x46, 0x3e,
  0x4c, 0x61, 0x93, 0x3e, 0x55, 0xb1, 0x1b, 0x3e, 0x27, 0xff, 0x6f, 0x3e,
  0xfe, 0x03, 0xbf, 0x3c, 0xf0, 0xe7, 0x11, 0x3e, 0xb8, 0xc3, 0x5b, 0x3e,
  0xc8, 0x6d, 0x8f, 0x3c, 0xec, 0x1e, 0xa4, 0xbd, 0x7f, 0x4c, 0x6f, 0x3e,
  0x50, 0xae, 0xa1, 0x3e, 0x30, 0x27, 0xb3, 0x3e, 0xf0, 0x1e, 0xd6, 0x3d,
  0xe4, 0xeb, 0x16, 0x3e, 0xae, 0x71, 0x85, 0xbe, 0xba, 0x0c, 0xb5, 0xbd,
  0xd9, 0x28, 0x07, 0xbe, 0xc0, 0xd3, 0x47, 0x3d, 0x72, 0x07, 0xec, 0x3c,
  0x0a, 0xb6, 0xe0, 0xbd, 0x86, 0x48, 0x85, 0xbe, 0xfb, 0x14, 0x13, 0xbe,
  0x5f, 0xe2, 0x80, 0xbe, 0x78, 0xc4, 0x44, 0xbd, 0xc0, 0xbb, 0x0f, 0x3d,
  0x33, 0x7e, 0x3b, 0xbd, 0xba, 0xa9, 0xf0, 0x3d, 0x4b, 0x38, 0x55, 0x3e,
  0xb3, 0x20, 0x19, 0xbe, 0x8a, 0x4e, 0x24, 0xbe, 0x55, 0xef, 0xae, 0x3d,
  0x4d, 0x86, 0x7f, 0x3e, 0xa4, 0xe3, 0xb9, 0x3e, 0xed, 0x7c, 0x6e, 0xbd,
  0x1f, 0xc5, 0xaa, 0x3e, 0x5b, 0xa9, 0xd1, 0x3e, 0xda, 0x3d, 0x97, 0x3e,
  0x10, 0x26, 0x71, 0x3d, 0x4b, 0x73, 0x95, 0xbe, 0x76, 0x52, 0x97, 0xbd,
  0xdc, 0xb4, 0x59, 0xbe, 0xfe, 0xce, 0x1e, 0xbe, 0x2d, 0x8c, 0x1a, 0xbe,
  0xbc, 0xcf, 0x24, 0x3e, 0x5a, 0xf8, 0x8b, 0x3e, 0x76, 0x4b, 0xfc, 0xbb,
  0xfe, 0x5d, 0xcc, 0xbd, 0x86, 0xc4, 0x8f, 0x3e, 0x1e, 0x07, 0x64, 0xbe,
  0x04, 0xe1, 0x86, 0x3d, 0xec, 0xd6, 0xc8, 0xbd, 0x6c, 0xb0, 0x61, 0xbe,
  0x71, 0xa3, 0x06, 0x3e, 0xdf, 0x2d, 0xe2, 0x3d, 0x82, 0x59, 0xd4, 0xbd,
  0x5e, 0x69, 0x4c, 0x3e, 0x04, 0x5c, 0x72, 0xbd, 0xba, 0xbb, 0xc1, 0xbd,
  0xeb, 0x16, 0x56, 0xbe, 0x90, 0xaf, 0xc7, 0x3c, 0xd4, 0x02, 0x75, 0xbe,
  0xea, 0xf9, 0x85, 0x3e, 0xd4, 0x1f, 0x71, 0x3e, 0x3c, 0xfc, 0x93, 0x3d,
  0x1c, 0x4c, 0x20, 0x3e, 0x34, 0xfa, 0x16, 0xbe, 0xfd, 0x13, 0x80, 0x3e,
  0x69, 0x83, 0x66, 0xbe, 0x0e, 0x0b, 0x09, 0x3e, 0x49, 0xd2, 0x84, 0x3d,
  0x80, 0xda, 0xf3, 0xbc, 0x5c, 0x5b, 0x84, 0x3e, 0xe8, 0x4f, 0x56, 0xbe,
  0xa0, 0xff, 0x24, 0x3e, 0x1c, 0x26, 0x93, 0x3e, 0xdb, 0x6d, 0x7b, 0xbe,
  0xa0, 0x9d, 0x26, 0xbe, 0x20, 0xfb, 0xfd, 0x3c, 0x18, 0x1c, 0x1b, 0xbd,
  0x80, 0xce, 0x0e, 0xbc, 0xc0, 0x3c, 0xfd, 0x3d, 0x00, 0x8f, 0x76, 0xbe,
  0x82, 0x72, 0x81, 0x3e, 0xb8, 0x7e, 0xc7, 0x3e, 0x32, 0xe7, 0x83, 0x3e,
  0x5b, 0xc3, 0x52, 0xbe, 0x4a, 0x39, 0x44, 0xbe, 0x3a, 0xdc, 0x5c, 0xbe,
  0x88, 0x52, 0xcc, 0x3e, 0x3d, 0xa7, 0x1c, 0x3e, 0x65, 0x29, 0xa3, 0x3e,
  0x34, 0xe8, 0x0d, 0x3e, 0xde, 0x5e, 0x2a, 0x3c, 0x75, 0xfe, 0x82, 0x3e,
  0x9a, 0xcf, 0x55, 0xbe, 0x9e, 0x26, 0x55, 0xbe, 0xb8, 0xb4, 0x02, 0xbd,
  0x50, 0x70, 0xc0, 0x3d, 0xc0, 0x4e, 0x9b, 0x3b, 0x52, 0x3c, 0x06, 0xbe,
  0xe6, 0x02, 0x1e, 0x3e, 0x2a, 0xf7, 0xe7, 0xbd, 0xe6, 0x59, 0x37, 0xbe,
  0x03, 0xcc, 0x0a, 0x3e, 0x48, 0xa7, 0x38, 0x3e, 0x60, 0x13, 0x26, 0x3e,
  0x48, 0x12, 0x38, 0xbd, 0x4c, 0x93, 0x05, 0x3e, 0x19, 0x71, 0x44, 0xbe,
  0x68, 0xdf, 0x21, 0xbe, 0x88, 0x45, 0x7e, 0x3d, 0xba, 0xe1, 0x3b, 0xbe,
  0x19, 0x70, 0xe6, 0xbd, 0x55, 0x6b, 0xcc, 0x3c, 0x93, 0x63, 0x5b, 0x3e,
  0xcb, 0xe9, 0xe6, 0x3e, 0x92, 0x26, 0x8e, 0xbd, 0x42, 0x3d, 0x5c, 0x3e,
  0x77, 0x2e, 0xc9, 0x3e, 0xec, 0x89, 0x73, 0xbb, 0x1b, 0xe0, 0x43, 0x3e,
  0xe2, 0xfe, 0xff, 0xff, 0x04, 0x00, 0x00, 0x00, 0x00, 0x01, 0x00, 0x00,
  0xaf, 0x77, 0x89, 0xbd, 0x76, 0x4c, 0xe6, 0x3d, 0x00, 0x00, 0x00, 0x00,
  0x9b, 0xf9, 0xd4, 0x3d, 0x46, 0x29, 0x04, 0x3e, 0x49, 0xaa, 0xf4, 0x3d,
  0x00, 0x00, 0x00, 0x00, 0x7f, 0x28, 0xf4, 0x3d, 0x00, 0x00, 0x00, 0x00,
  0x7f, 0x46, 0xf5, 0x3d, 0x31, 0x8b, 0xf0, 0x3d, 0x00, 0x00, 0x00, 0x00,
  0xc3, 0x08, 0x07, 0x3e, 0x00, 0x00, 0x00, 0x00, 0x62, 0x0c, 0x10, 0x3e,
  0x38, 0x22, 0x82, 0x3d, 0x92, 0x95, 0xd0, 0x3d, 0xb7, 0xfe, 0x10, 0x3e,
  0x00, 0x00, 0x00, 0x00, 0x29, 0xd8, 0x82, 0x3d, 0x08, 0x6f, 0xf4, 0x3d,
  0xe3, 0x53, 0xb9, 0xbd, 0xfb, 0xa8, 0x1d, 0x3e, 0xb1, 0x48, 0xa2, 0xbd,
  0x47, 0x72, 0xf5, 0x3d, 0x07, 0xdb, 0x0a, 0x3e, 0xa2, 0x87, 0xa4, 0x3c,
  0xba, 0x1a, 0xfa, 0x3d, 0x00, 0x00, 0x00, 0x00, 0x99, 0x2a, 0x87, 0xbd,
  0x00, 0x00, 0x00, 0x00, 0x00, 0x00, 0x00, 0x00, 0xc5, 0x21, 0x07, 0x3e,
  0x5a, 0x61, 0x91, 0xbc, 0xbb, 0x00, 0xea, 0x3d, 0xb1, 0x4a, 0x01, 0x3e,
  0x00, 0x00, 0x00, 0x00, 0x00, 0x00, 0x00, 0x00, 0xd3, 0xba, 0xaa, 0x3d,
  0x00, 0x00, 0x00, 0x00, 0x00, 0x00, 0x00, 0x00, 0xe2, 0x7f, 0x68, 0xbc,
  0x00, 0x00, 0x00, 0x00, 0x00, 0x00, 0x00, 0x00, 0x6d, 0xa1, 0x06, 0x3e,
  0x4e, 0x82, 0xac, 0x3d, 0xa2, 0x6a, 0xc0, 0xbb, 0x00, 0x00, 0x00, 0x00,
  0x00, 0x00, 0x00, 0x00, 0x00, 0x00, 0x00, 0x00, 0x00, 0x00, 0x00, 0x00,
  0x8f, 0x35, 0xf5, 0x3d, 0x00, 0x00, 0x00, 0x00, 0x05, 0xfc, 0xfb, 0x3d,
  0xbb, 0xf1, 0xc3, 0x3d, 0x00, 0x00, 0x00, 0x00, 0x00, 0x00, 0x00, 0x00,
  0x00, 0x00, 0x00, 0x00, 0x81, 0x52, 0xbf, 0x3d, 0x00, 0x00, 0x00, 0x00,
  0x00, 0x00, 0x00, 0x00, 0xc7, 0x49, 0xf4, 0x3d, 0x21, 0x83, 0x1d, 0x3e,
  0x44, 0x6f, 0xf5, 0x3d, 0xee, 0xff, 0xff, 0xff, 0x04, 0x00, 0x00, 0x00,
  0x04, 0x00, 0x00, 0x00, 0x28, 0xd4, 0xbf, 0x3d, 0x00, 0x00, 0x06, 0x00,
  0x08, 0x00, 0x04, 0x00, 0x06, 0x00, 0x00, 0x00, 0x04, 0x00, 0x00, 0x00,
  0x80, 0x00, 0x00, 0x00, 0x96, 0x76, 0x0e, 0x3e, 0xf8, 0x1b, 0xcd, 0x3d,
  0x00, 0x00, 0x00, 0x00, 0x35, 0x49, 0xe9, 0x3d, 0x50, 0xdf, 0x13, 0xbd,
  0x98, 0xdd, 0xef, 0xbc, 0x00, 0x00, 0x00, 0x00, 0x9c, 0x2c, 0x24, 0xbc,
  0xce, 0x1e, 0x13, 0xbd, 0x00, 0x00, 0x00, 0x00, 0x00, 0x00, 0x00, 0x00,
  0x8a, 0xd4, 0xd9, 0x3d, 0x1a, 0x9a, 0xca, 0x3d, 0x10, 0x23, 0xd2, 0x3d,
  0x00, 0x00, 0x00, 0x00, 0x00, 0xae, 0x27, 0xbd, 0x2b, 0x1a, 0x22, 0xbd,
  0x35, 0x16, 0xcf, 0x3d, 0xf5, 0x6e, 0xb6, 0xbc, 0x00, 0x00, 0x12, 0xbc,
  0x71, 0xf2, 0xe4, 0xbc, 0xf8, 0x4c, 0x7d, 0xbc, 0xae, 0xe5, 0x98, 0x3d,
  0x00, 0x00, 0x00, 0x00, 0x00, 0x00, 0x00, 0x00, 0xd9, 0xcc, 0xcc, 0xbb,
  0x3a, 0xa8, 0xd1, 0x3d, 0xff, 0xc7, 0xfa, 0xbc, 0xda, 0xfe, 0xf6, 0x3d,
  0x32, 0x2d, 0x43, 0xbd, 0x00, 0x00, 0x00, 0x00, 0x9f, 0x4b, 0xd1, 0x3d,
  0x20, 0xfb, 0xff, 0xff, 0x24, 0xfb, 0xff, 0xff, 0x0f, 0x00, 0x00, 0x00,
  0x4d, 0x4c, 0x49, 0x52, 0x20, 0x43, 0x6f, 0x6e, 0x76, 0x65, 0x72, 0x74,
  0x65, 0x64, 0x2e, 0x00, 0x01, 0x00, 0x00, 0x00, 0x14, 0x00, 0x00, 0x00,
  0x00, 0x00, 0x0e, 0x00, 0x18, 0x00, 0x14, 0x00, 0x10, 0x00, 0x0c, 0x00,
  0x08, 0x00, 0x04, 0x00, 0x0e, 0x00, 0x00, 0x00, 0x14, 0x00, 0x00, 0x00,
  0x1c, 0x00, 0x00, 0x00, 0xd8, 0x00, 0x00, 0x00, 0xdc, 0x00, 0x00, 0x00,
  0xe0, 0x00, 0x00, 0x00, 0x04, 0x00, 0x00, 0x00, 0x6d, 0x61, 0x69, 0x6e,
  0x00, 0x00, 0x00, 0x00, 0x03, 0x00, 0x00, 0x00, 0x80, 0x00, 0x00, 0x00,
  0x38, 0x00, 0x00, 0x00, 0x04, 0x00, 0x00, 0x00, 0x9a, 0xff, 0xff, 0xff,
  0x10, 0x00, 0x00, 0x00, 0x00, 0x00, 0x00, 0x08, 0x0c, 0x00, 0x00, 0x00,
  0x10, 0x00, 0x00, 0x00, 0x9c, 0xfb, 0xff, 0xff, 0x01, 0x00, 0x00, 0x00,
  0x09, 0x00, 0x00, 0x00, 0x03, 0x00, 0x00, 0x00, 0x08, 0x00, 0x00, 0x00,
  0x06, 0x00, 0x00, 0x00, 0x02, 0x00, 0x00, 0x00, 0xca, 0xff, 0xff, 0xff,
  0x10, 0x00, 0x00, 0x00, 0x00, 0x00, 0x00, 0x08, 0x10, 0x00, 0x00, 0x00,
  0x14, 0x00, 0x00, 0x00, 0xba, 0xff, 0xff, 0xff, 0x00, 0x00, 0x00, 0x01,
  0x01, 0x00, 0x00, 0x00, 0x08, 0x00, 0x00, 0x00, 0x03, 0x00, 0x00, 0x00,
  0x07, 0x00, 0x00, 0x00, 0x05, 0x00, 0x00, 0x00, 0x01, 0x00, 0x00, 0x00,
  0x00, 0x00, 0x0e, 0x00, 0x16, 0x00, 0x00, 0x00, 0x10, 0x00, 0x0c, 0x00,
  0x0b, 0x00, 0x04, 0x00, 0x0e, 0x00, 0x00, 0x00, 0x18, 0x00, 0x00, 0x00,
  0x00, 0x00, 0x00, 0x08, 0x18, 0x00, 0x00, 0x00, 0x1c, 0x00, 0x00, 0x00,
  0x00, 0x00, 0x06, 0x00, 0x08, 0x00, 0x07, 0x00, 0x06, 0x00, 0x00, 0x00,
  0x00, 0x00, 0x00, 0x01, 0x01, 0x00, 0x00, 0x00, 0x07, 0x00, 0x00, 0x00,
  0x03, 0x00, 0x00, 0x00, 0x00, 0x00, 0x00, 0x00, 0x04, 0x00, 0x00, 0x00,
  0x03, 0x00, 0x00, 0x00, 0x01, 0x00, 0x00, 0x00, 0x09, 0x00, 0x00, 0x00,
  0x01, 0x00, 0x00, 0x00, 0x00, 0x00, 0x00, 0x00, 0x0a, 0x00, 0x00, 0x00,
  0x8c, 0x03, 0x00, 0x00, 0x1c, 0x03, 0x00, 0x00, 0xac, 0x02, 0x00, 0x00,
  0x58, 0x02, 0x00, 0x00, 0x10, 0x02, 0x00, 0x00, 0xc4, 0x01, 0x00, 0x00,
  0x78, 0x01, 0x00, 0x00, 0xf0, 0x00, 0x00, 0x00, 0x60, 0x00, 0x00, 0x00,
  0x04, 0x00, 0x00, 0x00, 0xb2, 0xfc, 0xff, 0xff, 0x00, 0x00, 0x00, 0x01,
  0x14, 0x00, 0x00, 0x00, 0x1c, 0x00, 0x00, 0x00, 0x1c, 0x00, 0x00, 0x00,
  0x0a, 0x00, 0x00, 0x00, 0x34, 0x00, 0x00, 0x00, 0x02, 0x00, 0x00, 0x00,
  0xff, 0xff, 0xff, 0xff, 0x01, 0x00, 0x00, 0x00, 0x9c, 0xfc, 0xff, 0xff,
  0x19, 0x00, 0x00, 0x00, 0x53, 0x74, 0x61, 0x74, 0x65, 0x66, 0x75, 0x6c,
  0x50, 0x61, 0x72, 0x74, 0x69, 0x74, 0x69, 0x6f, 0x6e, 0x65, 0x64, 0x43,
  0x61, 0x6c, 0x6c, 0x3a, 0x30, 0x00, 0x00, 0x00, 0x02, 0x00, 0x00, 0x00,
  0x01, 0x00, 0x00, 0x00, 0x01, 0x00, 0x00, 0x00, 0x0a, 0xfd, 0xff, 0xff,
  0x00, 0x00, 0x00, 0x01, 0x14, 0x00, 0x00, 0x00, 0x1c, 0x00, 0x00, 0x00,
  0x1c, 0x00, 0x00, 0x00, 0x09, 0x00, 0x00, 0x00, 0x68, 0x00, 0x00, 0x00,
  0x02, 0x00, 0x00, 0x00, 0xff, 0xff, 0xff, 0xff, 0x20, 0x00, 0x00, 0x00,
  0xf4, 0xfc, 0xff, 0xff, 0x4c, 0x00, 0x00, 0x00, 0x73, 0x65, 0x71, 0x75,
  0x65, 0x6e, 0x74, 0x69, 0x61, 0x6c, 0x2f, 0x64, 0x65, 0x6e, 0x73, 0x65,
  0x5f, 0x31, 0x2f, 0x4d, 0x61, 0x74, 0x4d, 0x75, 0x6c, 0x3b, 0x73, 0x65,
  0x71, 0x75, 0x65, 0x6e, 0x74, 0x69, 0x61, 0x6c, 0x2f, 0x64, 0x65, 0x6e,
  0x73, 0x65, 0x5f, 0x31, 0x2f, 0x52, 0x65, 0x6c, 0x75, 0x3b, 0x73, 0x65,
  0x71, 0x75, 0x65, 0x6e, 0x74, 0x69, 0x61, 0x6c, 0x2f, 0x64, 0x65, 0x6e,
  0x73, 0x65, 0x5f, 0x31, 0x2f, 0x42, 0x69, 0x61, 0x73, 0x41, 0x64, 0x64,
  0x00, 0x00, 0x00, 0x00, 0x02, 0x00, 0x00, 0x00, 0x01, 0x00, 0x00, 0x00,
  0x20, 0x00, 0x00, 0x00, 0x96, 0xfd, 0xff, 0xff, 0x00, 0x00, 0x00, 0x01,
  0x14, 0x00, 0x00, 0x00, 0x1c, 0x00, 0x00, 0x00, 0x1c, 0x00, 0x00, 0x00,
  0x08, 0x00, 0x00, 0x00, 0x60, 0x00, 0x00, 0x00, 0x02, 0x00, 0x00, 0x00,
  0xff, 0xff, 0xff, 0xff, 0x40, 0x00, 0x00, 0x00, 0x80, 0xfd, 0xff, 0xff,
  0x46, 0x00, 0x00, 0x00, 0x73, 0x65, 0x71, 0x75, 0x65, 0x6e, 0x74, 0x69,
  0x61, 0x6c, 0x2f, 0x64, 0x65, 0x6e, 0x73, 0x65, 0x2f, 0x4d, 0x61, 0x74,
  0x4d, 0x75, 0x6c, 0x3b, 0x73, 0x65, 0x71, 0x75, 0x65, 0x6e, 0x74, 0x69,
  0x61, 0x6c, 0x2f, 0x64, 0x65, 0x6e, 0x73, 0x65, 0x2f, 0x52, 0x65, 0x6c,
  0x75, 0x3b, 0x73, 0x65, 0x71, 0x75, 0x65, 0x6e, 0x74, 0x69, 0x61, 0x6c,
  0x2f, 0x64, 0x65, 0x6e, 0x73, 0x65, 0x2f, 0x42, 0x69, 0x61, 0x73, 0x41,
  0x64, 0x64, 0x00, 0x00, 0x02, 0x00, 0x00, 0x00, 0x01, 0x00, 0x00, 0x00,
  0x40, 0x00, 0x00, 0x00, 0x86, 0xfe, 0xff, 0xff, 0x00, 0x00, 0x00, 0x01,
  0x10, 0x00, 0x00, 0x00, 0x10, 0x00, 0x00, 0x00, 0x07, 0x00, 0x00, 0x00,
  0x28, 0x00, 0x00, 0x00, 0xf4, 0xfd, 0xff, 0xff, 0x19, 0x00, 0x00, 0x00,
  0x73, 0x65, 0x71, 0x75, 0x65, 0x6e, 0x74, 0x69, 0x61, 0x6c, 0x2f, 0x64,
  0x65, 0x6e, 0x73, 0x65, 0x5f, 0x32, 0x2f, 0x4d, 0x61, 0x74, 0x4d, 0x75,
  0x6c, 0x00, 0x00, 0x00, 0x02, 0x00, 0x00, 0x00, 0x01, 0x00, 0x00, 0x00,
  0x20, 0x00, 0x00, 0x00, 0xce, 0xfe, 0xff, 0xff, 0x00, 0x00, 0x00, 0x01,
  0x10, 0x00, 0x00, 0x00, 0x10, 0x00, 0x00, 0x00, 0x06, 0x00, 0x00, 0x00,
  0x28, 0x00, 0x00, 0x00, 0x3c, 0xfe, 0xff, 0xff, 0x19, 0x00, 0x00, 0x00,
  0x73, 0x65, 0x71, 0x75, 0x65, 0x6e, 0x74, 0x69, 0x61, 0x6c, 0x2f, 0x64,
  0x65, 0x6e, 0x73, 0x65, 0x5f, 0x31, 0x2f, 0x4d, 0x61, 0x74, 0x4d, 0x75,
  0x6c, 0x00, 0x00, 0x00, 0x02, 0x00, 0x00, 0x00, 0x20, 0x00, 0x00, 0x00,
  0x40, 0x00, 0x00, 0x00, 0x16, 0xff, 0xff, 0xff, 0x00, 0x00, 0x00, 0x01,
  0x10, 0x00, 0x00, 0x00, 0x10, 0x00, 0x00, 0x00, 0x05, 0x00, 0x00, 0x00,
  0x24, 0x00, 0x00, 0x00, 0x84, 0xfe, 0xff, 0xff, 0x17, 0x00, 0x00, 0x00,
  0x73, 0x65, 0x71, 0x75, 0x65, 0x6e, 0x74, 0x69, 0x61, 0x6c, 0x2f, 0x64,
  0x65, 0x6e, 0x73, 0x65, 0x2f, 0x4d, 0x61, 0x74, 0x4d, 0x75, 0x6c, 0x00,
  0x02, 0x00, 0x00, 0x00, 0x40, 0x00, 0x00, 0x00, 0x03, 0x00, 0x00, 0x00,
  0x5a, 0xff, 0xff, 0xff, 0x00, 0x00, 0x00, 0x01, 0x10, 0x00, 0x00, 0x00,
  0x10, 0x00, 0x00, 0x00, 0x04, 0x00, 0x00, 0x00, 0x34, 0x00, 0x00, 0x00,
  0xc8, 0xfe, 0xff, 0xff, 0x27, 0x00, 0x00, 0x00, 0x73, 0x65, 0x71, 0x75,
  0x65, 0x6e, 0x74, 0x69, 0x61, 0x6c, 0x2f, 0x64, 0x65, 0x6e, 0x73, 0x65,
  0x2f, 0x42, 0x69, 0x61, 0x73, 0x41, 0x64, 0x64, 0x2f, 0x52, 0x65, 0x61,
  0x64, 0x56, 0x61, 0x72, 0x69, 0x61, 0x62, 0x6c, 0x65, 0x4f, 0x70, 0x00,
  0x01, 0x00, 0x00, 0x00, 0x40, 0x00, 0x00, 0x00, 0xaa, 0xff, 0xff, 0xff,
  0x00, 0x00, 0x00, 0x01, 0x10, 0x00, 0x00, 0x00, 0x10, 0x00, 0x00, 0x00,
  0x03, 0x00, 0x00, 0x00, 0x38, 0x00, 0x00, 0x00, 0x18, 0xff, 0xff, 0xff,
  0x29, 0x00, 0x00, 0x00, 0x73, 0x65, 0x71, 0x75, 0x65, 0x6e, 0x74, 0x69,
  0x61, 0x6c, 0x2f, 0x64, 0x65, 0x6e, 0x73, 0x65, 0x5f, 0x32, 0x2f, 0x42,
  0x69, 0x61, 0x73, 0x41, 0x64, 0x64, 0x2f, 0x52, 0x65, 0x61, 0x64, 0x56,
  0x61, 0x72, 0x69, 0x61, 0x62, 0x6c, 0x65, 0x4f, 0x70, 0x00, 0x00, 0x00,
  0x01, 0x00, 0x00, 0x00, 0x01, 0x00, 0x00, 0x00, 0x00, 0x00, 0x16, 0x00,
  0x18, 0x00, 0x14, 0x00, 0x00, 0x00, 0x10, 0x00, 0x0c, 0x00, 0x08, 0x00,
  0x00, 0x00, 0x00, 0x00, 0x00, 0x00, 0x07, 0x00, 0x16, 0x00, 0x00, 0x00,
  0x00, 0x00, 0x00, 0x01, 0x10, 0x00, 0x00, 0x00, 0x10, 0x00, 0x00, 0x00,
  0x02, 0x00, 0x00, 0x00, 0x38, 0x00, 0x00, 0x00, 0x84, 0xff, 0xff, 0xff,
  0x29, 0x00, 0x00, 0x00, 0x73, 0x65, 0x71, 0x75, 0x65, 0x6e, 0x74, 0x69,
  0x61, 0x6c, 0x2f, 0x64, 0x65, 0x6e, 0x73, 0x65, 0x5f, 0x31, 0x2f, 0x42,
  0x69, 0x61, 0x73, 0x41, 0x64, 0x64, 0x2f, 0x52, 0x65, 0x61, 0x64, 0x56,
  0x61, 0x72, 0x69, 0x61, 0x62, 0x6c, 0x65, 0x4f, 0x70, 0x00, 0x00, 0x00,
  0x01, 0x00, 0x00, 0x00, 0x20, 0x00, 0x00, 0x00, 0x00, 0x00, 0x16, 0x00,
  0x1c, 0x00, 0x18, 0x00, 0x00, 0x00, 0x14, 0x00, 0x10, 0x00, 0x0c, 0x00,
  0x00, 0x00, 0x00, 0x00, 0x08, 0x00, 0x07, 0x00, 0x16, 0x00, 0x00, 0x00,
  0x00, 0x00, 0x00, 0x01, 0x14, 0x00, 0x00, 0x00, 0x20, 0x00, 0x00, 0x00,
  0x20, 0x00, 0x00, 0x00, 0x01, 0x00, 0x00, 0x00, 0x3c, 0x00, 0x00, 0x00,
  0x02, 0x00, 0x00, 0x00, 0xff, 0xff, 0xff, 0xff, 0x03, 0x00, 0x00, 0x00,
  0x04, 0x00, 0x04, 0x00, 0x04, 0x00, 0x00, 0x00, 0x1d, 0x00, 0x00, 0x00,
  0x73, 0x65, 0x72, 0x76, 0x69, 0x6e, 0x67, 0x5f, 0x64, 0x65, 0x66, 0x61,
  0x75, 0x6c, 0x74, 0x5f, 0x64, 0x65, 0x6e, 0x73, 0x65, 0x5f, 0x69, 0x6e,
  0x70, 0x75, 0x74, 0x3a, 0x30, 0x00, 0x00, 0x00, 0x02, 0x00, 0x00, 0x00,
  0x01, 0x00, 0x00, 0x00, 0x03, 0x00, 0x00, 0x00, 0x01, 0x00, 0x00, 0x00,
  0x10, 0x00, 0x00, 0x00, 0x0c, 0x00, 0x0c, 0x00, 0x0b, 0x00, 0x00, 0x00,
  0x00, 0x00, 0x04, 0x00, 0x0c, 0x00, 0x00, 0x00, 0x09, 0x00, 0x00, 0x00,
  0x00, 0x00, 0x00, 0x09
};
